<T> 112557332
▁the 48796904
, 33731892
▁of 26597913
. 26447367
▁and 21207355
▁to 19337489
▁in 15805059
▁a 13198276
<U> 11217239
▁for 7862643
▁is 7708378
▁that 6689770
- 5691503
▁on 5648801
▁with 5311956
▁it 4185723
▁as 4132406
' 7563158
▁be 4090280
▁by 4006488
s 3969042
▁you 3876791
▁( 3836524
: 3702806
▁are 3563863
▁this 3395944
▁or 3104745
▁from 3104462
▁i 3101919
▁at 2813016
▁an 2529143
) 2657428
▁not 2480240
▁was 2412862
▁have 2343558
; 3355505
▁we 2212745
▁which 2202997
▁will 2077442
▁" 1918127
▁- 1878399
▁has 1836701
ing 1832791
▁all 1807109
▁can 1746469
▁your 1632284
? 1600297
▁one 1571838
ed 1534517
▁their 1487950
▁its 1479293
▁he 1414434
▁they 1410947
▁but 1355058
▁also 1292747
▁more 1274698
▁other 1165072
▁there 1150282
▁said 1146264
▁if 1144802
▁been 1098688
▁so 1078900
▁no 1078808
▁our 1071487
▁his 1066068
▁& 2218931
▁were 1025430
▁new 1011024
▁who 998540
t 991764
/ 985691
▁time 968445
▁what 957632
▁up 939730
▁out 935040
▁about 933210
▁do 931316
▁when 919707
y 888235
▁had 882020
▁any 878233
▁should 864921
▁would 856215
▁first 850300
▁these 828400
▁may 826368
▁such 821671
▁1 823864
▁my 798266
▁people 789022
▁into 766431
▁information 754730
▁only 731781
a 909375
’ 2121548
▁than 716982
▁them 707852
! 705192
▁under 698213
▁states 694225
▁some 691936
m 691243
▁use 690742
▁between 680975
▁international 680249
▁us 673061
▁according 672918
▁commission 671020
▁two 670324
▁work 663025
▁development 648535
▁me 639656
). 635720
▁system 632840
▁well 630588
▁european 627120
▁over 625835
▁united 624545
es 622576
c 621829
ly 618409
▁years 616297
d 615100
▁claim 606149
▁after 605815
e 602361
▁s 611566
▁world 594800
▁where 590719
▁like 584419
▁how 579199
▁through 570713
▁shall 569894
), 568334
▁those 568315
▁made 566291
" 562719
▁national 561592
▁member 561137
... 551125
ers 549757
▁most 549629
▁now 549154
▁committee 547683
▁year 543091
▁2 583004
▁council 542077
▁countries 534897
▁rights 525010
al 523614
▁support 523231
▁very 511687
▁human 508825
▁many 507643
▁must 497882
ted 496308
▁make 495741
b 491609
▁state 487748
▁take 484724
▁just 483556
▁need 481718
▁article 481579
▁each 480773
▁group 479078
▁her 478045
in 471883
▁report 471436
▁because 469098
▁right 468212
▁being 463013
▁high 462909
▁nations 461900
▁3 500363
▁including 457359
th 455717
▁then 455147
re 454189
▁number 452209
▁data 451533
▁order 450367
▁part 449237
▁used 448446
h 447911
▁could 445656
▁social 444708
▁she 441553
an 438587
▁public 438172
▁government 437257
▁during 436595
▁means 433699
▁general 430901
▁women 426560
on 424819
▁here 424134
▁way 423187
▁services 422237
▁even 422089
▁community 420848
▁un 4309338
▁process 411519
▁see 408027
▁him 407340
▁good 407335
▁know 406490
quot 413176
▁god 406098
ation 402768
▁day 400013
▁same 398222
▁life 398026
▁within 397827
▁get 397792
▁free 396887
▁before 396214
▁children 394956
the 394645
▁economic 391058
▁against 388445
▁law 388280
apos 1537891
▁wherein 387184
▁second 386454
▁per 1939877
i 428991
▁health 377622
▁security 373880
▁5 393899
▁go 373112
▁area 372590
▁“ 370320
▁– 368560
▁service 368373
▁de 20907066
p 364156
▁4 387573
▁e 3756985
▁— 358791
▁' 631280
w 357494
▁set 354534
▁products 354239
ts 354067
▁special 353793
▁following 352795
▁b 369484
g 352209
ity 352149
▁country 351190
▁while 350750
▁ago 348592
o 463321
▁without 346722
▁place 346528
ate 345698
or 344853
▁end 342163
k 340949
▁water 340759
▁10 340212
▁three 339778
▁policy 339440
▁mr 338445
ated 338218
▁both 337400
ic 336620
▁since 336379
▁important 333259
▁further 333147
▁available 331165
▁non 915568
▁case 329245
▁g 328881
f 331612
▁different 326586
▁back 326509
▁activities 324735
▁market 323349
▁best 321489
▁however 320852
er 472346
▁provided 318977
▁method 318658
us 318156
▁c 506744
▁measures 316824
▁want 316715
ating 316568
n 315145
▁long 312729
▁level 312459
▁least 310858
▁does 309827
▁did 309321
▁p 306388
▁management 305573
▁programme 303129
▁control 303050
ve 301742
▁financial 301335
▁help 299700
▁don 298223
tic 297950
▁view 297260
▁working 296872
▁6 301016
able 293742
▁provide 293483
▁home 293170
▁find 293081
▁last 292732
▁union 289548
▁president 288262
▁m 363769
▁city 286171
▁business 285284
▁possible 284965
▁d 3302006
▁down 283505
▁members 283192
▁small 283067
▁man 282621
▁action 280132
▁great 278332
▁claims 277553
▁own 277272
▁re 276681
▁particular 276318
▁hotel 272278
▁period 271801
▁product 271103
▁much 270299
▁access 270029
▁meeting 269224
▁decision 267577
▁come 388961
▁every 266975
▁l 4945103
▁having 266121
ary 265524
▁car 263598
▁education 262102
▁implementation 261733
▁another 260204
▁h 259937
▁based 259815
." 259367
l 306478
▁[ 259064
▁protection 258674
▁power 258386
▁office 256795
▁still 255599
le 254559
▁areas 254272
▁quality 254124
▁air 253621
▁local 252579
▁point 251784
2 352041
▁. 251478
▁cooperation 251116
▁research 250440
▁family 247714
▁training 247578
▁live 247348
▁among 246909
▁x 246549
ally 246172
▁body 245530
▁eu 245375
▁am 260307
▁days 244587
ings 243806
▁8 246179
▁project 243483
▁form 243151
▁change 242617
▁assembly 242427
▁party 240408
x 240045
▁regulation 240004
▁light 239392
▁think 238556
▁house 237837
▁full 237763
▁resolution 237108
▁device 236177
▁ensure 235861
▁7 243795
▁necessary 235263
] 235201
▁conditions 234748
▁million 234052
it 233811
▁co 233603
▁using 233368
▁europe 232995
▁close 232615
▁company 232001
▁open 231964
▁r 243393
v 250806
▁today 230894
▁give 230860
▁room 230608
▁f 230522
u 256995
▁energy 228657
▁present 227564
▁political 227070
▁20 226058
▁main 225701
▁therefore 225095
▁why 224703
▁trade 224171
▁taken 224059
▁12 223847
▁given 223279
▁resources 223275
▁say 223121
▁15 222205
▁contact 222196
▁food 222042
ar 406154
▁price 221181
▁person 221013
ll 220167
▁w 219439
▁total 218761
▁la 13223694
▁example 218167
▁around 217737
is 249010
▁plan 216094
ine 214727
▁k 214711
▁legal 214508
▁convention 214272
▁parties 214105
▁next 213396
▁real 213333
▁1, 248573
▁let 212583
▁regional 212447
ates 212305
▁n 581525
ong 211552
▁account 211510
▁material 211501
▁production 211374
▁name 211013
▁large 210785
as 360694
▁future 209956
ors 209757
▁characterized 209708
at 209323
▁agreement 209124
▁found 209013
▁months 208598
▁held 206989
▁o 1147773
▁fact 206470
▁head 205029
▁increase 204954
▁third 204869
to 204775
▁already 203138
▁big 203010
▁application 202737
▁various 201948
ec 201674
▁oil 201167
▁together 200984
▁court 200814
▁related 200578
en 609343
▁online 200136
▁30 200055
▁able 199930
▁situation 199691
r 234373
▁common 198119
▁act 197879
▁issues 197724
▁show 197652
▁young 197622
▁conference 197516
▁child 196694
▁position 195746
▁file 195302
▁review 195114
▁region 194978
▁current 194795
▁going 194769
ant 262850
▁persons 194469
▁results 194311
▁global 193681
▁better 193494
▁9 196802
▁off 193318
ment 193311
3 279300
▁experience 192834
▁republic 192749
▁specific 192443
▁old 192369
▁t 192327
com 192095
▁whether 192065
▁18 191930
▁please 191138
▁too 190652
▁put 190432
▁value 190339
▁question 190203
▁private 190083
▁type 189786
▁look 189632
▁things 188700
▁technical 188674
▁due 188532
▁love 188393
est 291061
­ 337914
▁environment 187176
▁technology 186653
▁school 186555
▁hand 186188
▁accordance 185970
▁basis 185313
▁respect 185164
4 250349
▁side 184842
▁become 184805
▁always 184519
▁war 184237
▁cases 183618
▁less 183500
( 710074
▁care 183139
▁parliament 183095
ch 186296
ke 181700
▁session 181672
▁field 181668
▁again 181338
▁above 180718
▁certain 180440
tive 180247
▁line 180204
▁land 180128
ist 179987
▁needs 179923
▁systems 179787
▁treatment 179423
▁book 178212
als 178135
▁times 177884
▁result 177739
▁secretary 177617
▁men 177437
▁section 177326
▁11 177308
▁course 177203
te 497448
▁several 176644
▁december 176318
ent 236133
▁little 175730
▁industry 175284
▁four 174553
▁include 174273
▁adopted 173800
▁natural 173133
▁paragraph 173069
▁design 172991
▁organization 172922
▁continue 172565
▁inter 172502
▁peace 172341
▁groups 172181
▁play 171997
▁role 171558
▁safety 171039
▁society 170792
un 495406
▁sector 170074
▁list 169915
▁efforts 169809
ance 169614
▁rules 169443
▁until 169339
▁read 169331
▁sh 169321
▁pre 169254
▁upon 168430
▁/ 198481
▁south 168156
▁far 168154
▁staff 167528
▁low 167508
▁board 167378
ans 167180
▁amount 166590
▁key 166566
▁top 166534
▁offers 166517
▁relevant 166447
▁few 166320
▁assistance 166277
▁really 166182
▁called 166137
▁organizations 165776
▁rate 165459
▁companies 165438
▁projects 165344
▁site 164771
▁china 164639
general 164637
▁v 182353
▁central 163766
de 235483
▁risk 163256
▁addition 162968
led 162902
▁might 162782
▁problems 162685
▁subject 162398
ness 162229
▁study 161813
▁terms 161754
▁authorities 161572
▁force 161265
▁start 160978
▁14 160756
▁check 160603
▁located 160492
▁required 160441
” 231895
▁13 160017
▁effective 159761
▁additional 159714
▁dis 158793
▁centre 158756
z 329635
up 158423
▁established 157435
▁jesus 157425
▁others 156939
ol 156352
▁june 156179
▁living 155925
▁u 155742
▁major 155034
8 199401
▁address 154869
▁16 154493
▁once 154484
▁search 153724
▁often 153664
▁j 189510
▁date 153255
▁building 153189
▁budget 153164
▁capacity 152996
tions 152906
▁space 152863
id 152727
▁developing 152693
▁single 152464
▁canada 152342
▁making 152029
7 211967
▁never 151707
▁problem 151492
▁offer 151417
▁draft 150999
▁team 150956
▁requirements 150924
▁directive 150880
▁programmes 150804
st 150691
▁taking 150333
▁progress 150095
▁center 150056
▁growth 150036
▁something 150019
ys 149988
▁cost 149977
▁especially 149524
1 274317
▁thus 149111
▁away 149098
▁regard 148988
▁add 148812
▁appropriate 148693
▁framework 148530
▁network 148405
▁request 148119
▁issue 148079
▁program 147512
▁got 147421
▁ch 147264
5 210853
▁heart 147047
co 155349
▁sub 146875
6 225323
ations 146802
um 146470
and 146440
▁institutions 146167
he 146101
▁yet 146046
j 160795
▁whole 145271
▁transport 145234
▁cannot 144702
et 144663
os 385447
▁sea 143947
▁share 143805
▁surface 143687
les 143611
ia 193286
▁interest 143487
▁unit 143391
▁25 143359
▁received 142884
▁17 142883
▁weight 142549
▁aid 142543
▁costs 142495
▁al 1418903
▁call 142236
▁foreign 142173
▁clear 142145
ins 142073
▁step 141748
▁five 141658
▁particularly 141317
ad 141262
▁cent 140916
▁characterised 140629
▁march 140568
▁range 140510
▁july 140393
ce 226231
▁game 140123
▁post 140072
▁korea 139878
▁includes 139720
▁considered 139628
vah 139499
▁left 139305
▁police 138978
▁developed 138961
il 320765
▁24 138330
▁hours 138160
ta 260889
▁games 137887
▁jeho 137528
▁improve 137505
▁short 136945
▁age 136814
▁€ 136675
▁approach 136515
▁north 136145
▁provisions 135489
ful 135413
▁comprising 135402
▁performance 135246
▁table 135052
▁code 135025
▁policies 134879
▁money 134392
▁bank 134340
▁concerned 134111
▁kind 134037
▁population 133977
ye 133893
9 183666
el 214498
▁personal 133492
▁individual 133265
▁-- 133159
▁levels 132953
▁provides 132941
▁communication 132732
▁mission 132644
▁create 132641
▁reports 132616
▁included 132394
▁19 132266
▁content 132219
▁effect 132169
ies 131972
▁environmental 131812
ps 131782
▁civil 131551
▁towards 131512
▁employment 131509
▁black 131475
▁keep 131327
ter 185497
▁news 131206
▁equipment 131179
▁note 131136
▁language 131087
▁follow 131068
▁white 131023
▁january 130799
▁dancing 130723
red 130315
▁took 130212
am 132498
▁di 5618876
▁claimed 129512
▁impact 129432
▁travel 129382
▁done 129373
▁gas 129254
▁attention 129089
▁earth 128828
▁increased 128696
▁italy 128454
▁art 128182
▁internet 127882
▁october 127816
ks 127465
". 134245
▁page 127023
▁workers 126986
▁comprises 126793
▁size 126608
▁nature 126558
▁treaty 126424
▁september 126412
▁death 126337
▁fund 126273
▁red 126245
▁proposal 126243
▁annex 126215
ess 125853
▁justice 125787
▁history 125713
▁university 125218
ous 125168
▁concerning 125146
ry 125102
▁church 125072
▁although 124952
ical 124950
ro 143140
▁official 124678
▁parts 124634
ze 124612
▁prices 124606
▁$ 124502
▁along 124301
▁event 124228
ge 153946
▁investment 124070
▁knowledge 123953
▁night 123891
▁location 123868
▁operation 123800
▁medical 123519
▁english 123111
▁airport 122975
▁self 122974
do 146634
we 122700
▁proposed 122260
la 270248
tion 122223
▁media 122102
▁cross 122057
ves 121974
▁strategy 121450
▁works 121398
▁bar 121236
▁zoom 153417
▁y 4177696
▁lot 121070
▁pay 120921
▁week 120828
▁april 120689
▁november 120647
▁came 120461
▁known 120447
▁meet 120304
▁website 120277
ur 174045
▁africa 120241
▁model 120209
▁changes 120178
▁lord 120140
▁early 120041
▁procedure 120001
▁double 119947
▁authority 119903
▁bo 119853
▁cultural 119811
▁past 119737
▁en 6370677
▁analysis 119505
▁blood 119157
▁rooms 119138
▁later 119071
▁department 118989
▁internal 118947
ms 118932
▁property 118856
▁matter 118818
▁ab 231865
▁sp 118538
▁believe 118140
▁providing 118106
," 117828
▁2, 134108
▁50 117476
▁below 117273
▁machine 117253
▁web 135353
▁events 117069
▁visit 116939
▁standards 116893
▁hard 116779
man 116681
▁1. 116656
▁france 116570
ds 116362
▁joint 116344
▁germany 116259
▁questions 116029
▁pressure 116027
▁se 2041375
ator 115935
▁st 115730
▁apparatus 115650
▁higher 115591
▁lower 115577
▁military 115472
▁stay 115463
▁21 115292
▁facilities 115179
▁final 115075
▁sustainable 114975
▁document 114889
▁referred 114659
▁standard 114596
▁violence 114522
▁active 114438
om 114384
▁| 114343
▁face 114282
▁details 114116
lic 114090
▁download 114040
▁software 114026
▁test 113956
▁basic 113928
▁feel 113736
▁kingdom 113654
▁direct 113423
▁structure 113385
▁tax 113209
▁words 113187
▁easy 113149
ra 162752
▁minutes 113131
▁reason 113006
▁transfer 112926
▁points 112889
be 126883
▁tell 112468
▁image 112365
▁father 112347
▁strong 112286
▁apply 112243
▁orgasm 112139
▁average 112091
▁fully 112029
▁capital 111885
▁greater 111876
▁snapshot 111870
▁materials 111857
▁‘ 156870
▁carried 111387
▁added 111253
▁video 110943
▁nuclear 110898
▁solution 110893
▁students 110752
▁0 114131
▁operations 110645
▁bring 110641
▁hope 110637
▁representative 110632
▁ever 110431
▁response 110330
▁return 110275
one 110044
▁exchange 110039
▁word 109900
▁existing 109828
▁recent 109517
▁ministry 109503
▁directly 109376
▁half 109320
▁purpose 109158
▁affairs 109119
▁signal 109062
▁thing 109020
▁effects 108986
▁status 108857
▁importance 108808
▁source 108753
▁french 108685
cy 108649
li 146600
▁true 108428
▁minister 108406
▁six 108356
▁reference 108309
▁supply 108092
▁culture 108060
▁legislation 108045
▁ar 107901
▁ii 107859
▁etc 107858
ti 295200
for 107609
▁allow 107605
▁doing 107591
▁anti 107580
▁activity 107574
▁monitoring 107567
▁paper 107524
▁bed 107394
▁makes 107363
ters 107091
ving 107069
▁designed 107010
▁previous 107007
▁100 114601
▁promote 106682
▁month 106680
▁opinion 106623
▁selected 106574
▁regarding 106513
its 106327
▁beautiful 106241
▁itself 106045
▁job 105889
ants 105733
▁road 105676
▁responsible 105667
▁hotels 105629
▁series 105600
▁ad 328881
▁front 105178
▁similar 105036
00 115546
▁develop 104659
▁economy 104550
▁receive 104527
▁won 104432
▁needed 104249
▁music 104224
ise 104166
▁near 104158
▁via 104031
▁element 103954
▁movement 103859
▁construction 103765
▁fire 103702
▁computer 103592
▁2. 103519
▁22 103481
▁led 103470
▁either 103297
▁complete 103253
▁class 102929
▁lead 102918
▁says 102885
ri 113997
▁practice 102666
▁significant 102658
▁color 102580
se 141426
▁item 102468
ists 102130
▁modern 102071
▁professional 102035
▁connection 101840
▁currently 101771
▁base 233477
▁participation 101760
▁th 101651
▁agenda 101636
▁mind 101399
▁text 101395
▁outside 101336
▁elements 101235
▁map 101129
▁park 101115
▁rather 101057
▁recommendations 101010
▁created 100961
▁enjoy 100914
ons 131189
▁february 100842
▁leave 100802
▁potential 100783
▁involved 100758
ang 100604
ens 157236
▁ask 100411
▁german 100401
▁, 208772
▁film 100252
▁consider 100176
2, 100108
▁31 99842
▁station 99818
▁gender 99754
▁patients 99659
▁green 99482
▁administrative 99458
▁director 99407
▁try 99339
▁understand 99269
▁themselves 99250
▁industrial 99142
▁expected 99126
▁ass 99070
▁seen 98845
▁context 98692
▁ex 98678
▁user 98593
▁soon 98472
▁difficult 98455
▁procedures 98428
▁former 98333
▁assessment 98155
▁son 451479
▁23 98012
▁everything 97968
▁agency 97927
▁rule 97771
▁decided 97666
▁direction 97635
▁gu 97573
▁labour 97511
ism 97508
▁meetings 97410
▁striptease 97227
▁regions 97145
▁funds 96780
▁steps 96710
.1 96613
▁le 4387094
▁israel 95735
▁actually 95688
▁bodies 95674
ver 125243
▁christ 95521
ac 119432
▁tv 95315
▁cover 95261
▁looking 95187
▁administration 95169
▁articles 95141
▁lo 633169
ators 95018
ck 95011
▁america 94998
▁mean 94937
▁buy 94909
▁features 94552
▁goods 94551
., 94488
▁press 94410
▁stock 94324
▁limited 94310
see 94294
▁sex 94116
▁benefits 94079
▁met 94068
▁responsibility 94017
▁annual 93986
▁sure 93929
▁run 93774
▁principles 93717
▁learn 93704
▁criminal 93616
▁forward 93607
ling 93578
way 93554
▁applied 93498
▁serious 93334
▁drive 93274
▁forms 93273
▁ro 93074
▁prevent 92829
▁choose 92557
▁submitted 92543
▁km 145752
▁40 92490
▁original 92457
▁yes 92382
▁governments 92346
▁spirit 92271
▁(1) 92251
▁opportunity 92245
ung 234292
▁connected 92076
▁28 92071
▁send 91996
▁mother 91808
▁takes 91705
▁asked 91702
▁associated 91608
▁cause 91468
▁guide 91404
▁association 91377
▁ra 91374
▁disease 91313
▁longer 91187
▁talk 91182
▁steel 91124
▁august 91101
gi 91061
▁citizens 91037
▁domestic 91021
▁description 90970
▁turn 90884
▁term 90879
▁secretariat 90718
▁studies 90659
ma 125254
▁composition 90520
▁thought 90467
term 90429
ion 90424
▁equal 90421
▁ground 90397
▁actions 90351
▁though 90264
▁bible 90041
▁east 89995
▁methods 89991
point 89987
▁essential 89893
▁almost 89889
▁stop 89819
▁opening 89787
▁users 89731
▁planning 89722
▁operating 89715
ul 89705
em 136233
▁reported 89670
▁layer 89657
", 121522
▁across 89553
▁vehicle 89530
▁whose 89459
▁documents 89303
▁function 89290
ged 89222
▁fingering 89195
▁wall 89159
ble 89069
▁competition 89064
▁medium 89016
ws 89009
▁temperature 88899
▁statement 88895
mo 93616
▁enough 88823
me 123190
▁res 88600
ars 88574
▁comes 88508
ying 88473
ties 88412
▁thank 88308
ents 88209
▁nothing 88203
▁decisions 88133
▁throughout 88130
▁card 88078
▁provision 88055
▁dr 88044
▁preceding 88001
▁american 87999
▁focus 87993
▁went 87950
▁partners 87892
▁floor 87861
▁representatives 87713
▁communities 87643
▁regulations 87567
▁lack 87561
▁po 95734
▁sound 87510
▁town 87368
▁sent 87342
pe 87304
▁% 173764
▁sign 87181
▁acid 87159
▁defined 87152
▁rates 86905
ho 86787
▁continued 86781
ments 86778
▁sale 86711
bs 86701
▁3. 86680
no 102465
based 86561
▁move 86560
▁african 86478
▁26 86364
▁sun 86302
▁weeks 86299
▁metal 86242
▁province 86229
▁positive 86222
▁thanks 86188
po 86187
▁agreed 86110
▁delivery 86102
▁click 86097
▁27 85979
▁message 85970
▁el 3968744
▁ti 111124
ures 85828
▁customer 85823
▁speed 85820
▁z 136051
▁relating 85584
▁apartment 85573
▁consideration 85466
▁condition 85268
▁reform 85240
▁external 84965
▁pro 122407
▁processing 84882
▁reduce 84824
▁climate 84768
▁success 84614
▁roleplay 84556
ence 84490
ging 84315
▁mobile 84312
▁availability 84219
▁ 2268201
▁principle 84175
hamster 84106
▁ways 84079
▁korean 84030
▁noted 83960
▁presented 83854
▁applications 83698
ha 83595
▁version 83569
ca 111717
▁establishment 83498
▁reviews 83316
1, 83315
ish 83096
▁payment 83038
▁spain 83014
▁evaluation 82899
▁3, 101093
▁stage 82774
▁freedom 82728
ved 82689
▁sa 242267
▁customers 82587
per 82587
gu 82567
ide 82563
▁sc 82542
▁physical 82360
▁objectives 82300
▁collection 82135
▁com 82105
▁portion 82098
fied 82085
less 82040
▁published 82012
▁reduction 81820
▁tool 81756
▁matters 81504
▁types 81472
▁forces 81308
ut 83367
▁housing 81182
ap 82143
▁experts 81113
▁benefit 81112
▁plant 81077
▁plans 81041
▁finally 80983
▁century 80932
▁friends 80918
▁objective 80912
▁independent 80901
▁enter 80836
▁crisis 80762
3, 80735
▁photo 80717
▁coming 80712
▁brought 80707
▁wish 80559
ard 80506
▁mo 80413
▁box 80382
▁simple 80365
▁concern 80347
▁island 80301
▁regular 80228
tics 80178
▁popular 80148
ci 219868
▁credit 80113
▁remember 80086
▁integrated 80081
▁overall 79992
ph 79922
▁views 79904
▁christian 79836
▁demand 79792
▁values 79772
▁items 79656
▁daily 79634
▁middle 79560
▁families 79516
▁contains 79444
▁traditional 79409
▁agricultural 79385
▁told 79383
▁king 79346
▁+ 82593
▁maximum 79086
di 128072
▁achieve 79080
▁poverty 79062
▁files 79044
pt 78976
▁protect 78872
▁parents 78854
▁evidence 78839
▁build 78770
▁formed 78744
▁started 78571
▁declaration 78546
▁inside 78495
▁laws 78487
▁round 78365
▁conflict 78343
ized 78246
▁kim 78199
▁solutions 78193
ir 137115
der 88720
▁protocol 78104
▁expressed 77957
▁rest 77920
▁digital 77884
▁relations 77820
▁built 77819
▁loss 77776
▁beginning 77690
▁length 77690
▁29 77677
▁coordination 77658
▁science 77498
▁mar 102175
▁faith 77375
▁produced 77339
age 77321
▁prevention 77284
▁practices 77229
▁bad 77222
▁truth 77117
▁scientific 77074
▁bus 77062
▁reasons 77061
yl 76996
▁shows 76995
▁increasing 76987
▁percent 76951
▁brand 76907
▁crime 76896
▁income 76878
▁reach 76867
▁minimum 76833
▁woman 76827
▁agencies 76802
▁youth 76784
▁commercial 76692
▁perfect 76657
▁san 106272
▁complex 76613
▁4. 76593
time 76551
▁comprehensive 76491
▁watch 76383
▁safe 76376
▁glass 76363
▁establish 76358
▁category 76352
▁prepared 76337
▁markets 76282
▁democratic 76267
▁hot 76242
▁fo 76237
ology 76213
▁discrimination 76205
▁letter 76204
▁smoking 76180
so 76010
▁email 75969
▁became 75917
ure 75865
▁euro 87363
▁sales 75823
2. 75777
); 75773
▁didn 75773
▁select 75709
▁wide 75702
▁places 75694
im 85060
▁extra 75518
▁agreements 75510
▁opportunities 75474
her 75356
000 75296
▁beach 75191
▁paid 75133
ff 75129
ces 75095
.” 75068
▁proposals 75050
▁charge 75028
-1 74888
▁eur 74882
▁recommended 74834
▁comments 74739
▁oh 74711
▁path 74703
ian 74653
▁lives 74600
ne 134353
▁billion 74519
res 75632
▁poor 74501
▁idea 74418
▁port 74385
▁counter 74367
pa 80532
▁executive 74140
ics 74090
▁deal 74066
ats 74049
— 74004
▁heat 73928
▁multi 73927
5, 73915
▁distribution 73912
ie 205868
▁panel 73752
▁60 73729
▁creation 73728
▁cell 73701
▁mass 73658
▁implement 73612
▁remain 73607
▁supported 73535
▁storage 73511
▁approved 73423
▁requested 73397
▁motor 73387
els 73382
▁chinese 73373
▁che 1714188
▁flow 73303
▁permanent 73271
▁(2) 73248
table 73238
▁promotion 73199
▁author 73155
4, 73054
▁hair 73038
▁entire 72958
▁hold 72889
▁relationship 72887
ab 134018
▁federal 72823
0 74308
▁purposes 72739
lo 142141
fi 81124
▁containing 72676
▁acts 72576
▁saying 72530
▁challenges 72496
▁insurance 72458
▁ec 72327
▁recently 72296
▁processes 72291
3. 72278
bo 74877
▁nor 72246
use 72232
% 72228
▁infrastructure 72168
): 72132
▁4, 83449
▁miles 72087
▁accommodation 72040
▁west 72039
▁dialogue 71825
▁anal 71815
▁preparation 71724
▁walk 71718
▁train 71647
ot 71586
▁phone 71530
▁funding 71525
▁allows 71505
▁covered 71490
▁sexual 71450
▁deep 71427
▁pool 71401
▁style 71309
▁(1 71281
▁ones 71141
▁ten 71116
▁holiday 71009
▁presence 70956
▁understanding 70877
▁weapons 70841
q 70781
▁instruments 70672
20 93919
▁phase 70612
▁drug 70558
land 70537
▁mm 70326
▁leading 70310
▁cut 70269
50 76882
▁italian 70229
▁initiative 70190
▁blue 70178
▁compared 70129
▁sense 70019
▁likely 69846
▁tools 69818
▁territory 69768
▁himself 69760
▁institute 69657
▁welcome 69641
▁guidelines 69628
6, 69627
5. 69590
▁pursuant 69571
▁unique 69524
ting 69469
▁electronic 69411
▁reporting 69378
▁simply 69347
▁answer 69338
▁behalf 69314
▁guarantee 69278
▁prior 69139
▁contained 69122
30 93049
▁anything 69058
▁girls 69036
▁implementing 68949
▁instead 68944
▁commitment 68939
ological 68900
▁component 68848
▁mechanism 68846
▁tri 68843
▁humanitarian 68818
▁contract 68785
▁bit 68766
ised 68741
▁super 68741
▁avoid 68726
tically 68720
▁schools 68720
▁written 68711
ak 68669
▁began 68577
▁display 68576
▁skin 68564
▁interests 68543
▁girl 68541
ane 68520
▁• 68409
▁aspects 68400
▁moment 68338
▁priority 68280
▁units 68265
▁behind 68247
da 120605
▁ins 68216
▁cells 68194
governmental 68134
▁estate 68123
▁goals 68123
▁balance 68113
▁john 68048
▁fair 67966
med 67965
▁rapporteur 67949
▁manner 67892
out 67845
▁fast 67778
& 67761
8, 67757
▁fine 71451
▁windows 67594
▁quite 67593
▁gave 67540
▁options 67513
▁tits 67513
▁origin 67481
▁clearly 67468
▁despite 67467
▁breakfast 67444
▁contribution 67420
▁waste 67343
▁shown 67329
▁thereof 67279
▁investigation 67140
▁seems 67082
▁record 67054
year 66988
▁primary 66933
▁everyone 66914
▁saw 66876
▁link 66854
▁clean 66715
ive 66641
ets 66627
▁radio 66536
▁rental 66487
▁master 66429
▁carry 66385
2) 68949
1. 66364
▁holy 66337
▁victims 66332
▁individuals 66299
▁initiatives 66254
▁uses 66247
▁components 66240
go 71896
▁wood 66187
▁strengthen 66153
▁wife 66105
▁stand 66097
▁store 66053
▁integration 66027
▁sol 66013
▁exercise 65972
▁sk 65862
▁employees 65835
▁japan 65811
▁strategic 65757
ast 65742
▁reduced 65729
▁fundamental 65702
▁choice 65670
▁li 65651
▁remains 65640
▁sin 201283
▁ability 65499
▁photos 65480
4. 65416
▁ho 91902
▁mis 79541
▁technologies 65259
▁conduct 65233
▁garden 65194
▁learning 65192
▁financing 65160
kes 65153
▁immediately 65080
▁lost 64982
▁allowed 64936
▁adoption 64914
▁bathroom 64898
▁religious 64894
hed 64834
▁emergency 64830
▁du 2009708
7, 64722
▁2010 64681
▁starting 64678
▁target 64630
▁delegation 64630
▁ma 313508
ability 64503
▁rural 64496
ag 93036
▁lines 64348
▁beyond 64336
▁task 64328
hip 64296
▁sta 67350
▁require 64253
▁notes 64234
▁indeed 64169
▁log 64141
▁factors 64134
▁2008 64132
op 64119
▁setting 64093
▁determined 64071
▁pa 64069
▁whom 64027
▁output 63973
▁caused 63951
▁jobs 63871
▁morning 63824
▁usually 63812
▁wine 63769
▁measure 63740
10 122793
▁vote 63732
▁commissioner 63701
▁circuit 63679
▁urban 63670
▁5. 63635
▁doctor 63573
▁personnel 63540
▁hands 63495
ana 103561
▁2009 63483
con 66793
▁easily 63442
▁introduced 63430
▁distance 63424
▁japanese 63403
▁save 63402
▁york 63373
▁debate 63350
▁issued 63340
▁trust 63322
eec 63263
▁option 63235
▁forum 63202
atory 63177
by 63157
▁cities 63153
▁obligations 63147
6. 63107
▁ready 63037
of 63019
▁suitable 62983
▁restaurant 62931
▁concerns 62881
▁criteria 62736
▁des 4367838
▁star 62719
▁excellent 62686
▁sometimes 62662
▁> 62634
▁sources 62613
▁2011 62610
▁useful 62527
▁mid 62503
▁identified 62476
▁release 62472
▁trans 62452
▁asia 62420
▁imp 62411
▁officials 62363
ically 62350
▁kitchen 62279
cks 62271
▁wrong 62270
▁wanted 62262
ization 62182
▁innovation 62172
▁committed 62153
▁getting 62126
▁gold 62106
▁calls 62081
▁russian 62064
ina 159017
▁marketing 62059
▁tra 251469
▁division 62022
eu 62011
▁organized 62011
▁maintenance 61979
▁sports 61972
▁functions 61947
▁na 61938
▁discussion 61922
▁2012 61919
▁programs 61883
▁summer 61845
ene 61831
▁sectors 61787
▁street 61734
▁ri 105297
▁requests 61589
▁fish 61529
ions 61529
▁latest 61518
▁5, 71324
▁spanish 61470
▁animals 61449
▁quickly 61425
▁fixed 61413
▁affected 61396
▁ms 61391
7. 61332
▁liquid 61299
▁someone 61297
▁grand 65644
▁devices 61182
ges 61289
▁produce 61120
▁aim 61060
ite 86575
▁dead 60864
na 95556
▁stated 60812
▁heard 60799
▁engine 60777
▁gives 60750
▁season 60746
▁goal 60724
▁strength 60720
▁completely 60720
▁cm 61619
▁species 60700
▁2000 60692
▁story 60680
▁2013 61193
▁chapter 60668
▁completed 60654
che 110981
▁paris 60612
▁ag 77896
▁applicable 60562
▁200 62595
▁te 108114
▁highly 60529
▁vehicles 60528
ach 60513
+ 60511
▁conducted 60483
▁mon 101687
ines 60353
alization 60343
▁wi 60276
▁majority 60268
▁implemented 60241
▁cap 60151
▁fight 60147
▁participants 60092
▁bur 60083
▁enable 60050
▁alone 60008
▁detailed 59982
zed 59978
▁happy 59950
if 59919
▁efficiency 59867
▁achieved 59864
▁foundation 59843
▁pass 59837
▁ste 59827
old 59806
▁pe 59760
▁communications 59712
▁growing 59701
▁door 59646
▁plate 59630
▁da 884978
▁followed 59572
/2 64448
▁compound 59472
▁contribute 59434
▁separate 59423
▁statistics 59375
▁seven 59329
▁2014 61299
▁spring 59299
▁possibility 59233
▁yeah 59229
▁selection 59227
ely 59220
▁2007 59217
▁fuel 59215
▁electric 59210
▁dedicated 59127
▁giving 59114
▁par 1051882
▁memory 59074
▁intended 58988
▁paul 58980
▁eyes 58969
▁recovery 58913
▁supporting 58882
▁generally 58878
▁entitled 58878
▁negotiations 58840
▁chairman 58838
▁negative 58748
▁volume 58741
▁mentioned 58736
▁express 58730
▁animal 58729
8. 58670
▁yourself 58615
▁relation 58574
▁reached 58538
▁core 58447
▁consumption 58436
▁damage 58374
▁strengthening 58331
▁operational 58308
▁normal 58277
▁placed 58266
end 123949
▁successful 58217
▁command 58178
9, 58139
▁app 58139
pr 58132
▁chamber 58104
ric 58086
▁trying 58037
▁contributions 58035
▁micro 58026
ath 58007
▁born 57982
▁q 57960
king 57951
▁entry 57950
▁6. 57935
▁western 57930
▁fall 57906
▁screen 57874
ase 57863
▁improved 57862
▁equipped 57823
▁practical 57801
▁cur 57739
▁2006 57727
▁6, 66086
▁circumstances 57693
▁min 58967
ex 57644
▁models 57628
▁effort 57539
▁2005 57522
ue 182876
▁extension 57420
▁comment 57410
▁hear 57405
ches 57393
▁mechanisms 57383
▁district 57378
▁village 57363
▁skills 57339
tical 57332
▁con 2250468
▁indigenous 57217
▁bio 57155
▁arms 57138
▁guests 57120
▁receiving 57022
▁formula 56993
▁addressed 56992
▁described 56942
▁serve 56909
01 56898
▁ha 743516
▁armed 56804
▁okay 56802
▁traffic 56765
▁instrument 56717
9. 56710
▁promoting 56670
▁notice 56642
▁images 56562
▁participate 56532
ited 56523
ka 56484
▁friend 56448
▁improving 56387
▁2015 61277
ched 56146
▁requires 56128
▁follows 56082
▁peoples 56035
▁pain 56019
▁partnership 56004
▁maintain 55963
▁fishing 55955
▁arrangements 55924
▁discover 55911
net 57439
▁variety 55889
▁reality 55870
▁stri 55869
ber 58586
line 55863
▁mark 55829
▁break 55800
▁extent 55779
▁net 55768
▁agriculture 55756
▁concentration 55710
▁picture 55680
▁offered 55655
▁museum 55653
▁flat 55565
▁challenge 55532
ba 84439
▁late 55520
▁profile 55439
▁arranged 55403
▁sites 55345
▁begin 55334
▁initial 55325
▁carbon 55291
mm 55541
▁interested 55215
▁highest 55187
▁parking 55166
▁tour 55158
▁reading 55147
▁speak 55102
▁doesn 55078
▁uns 129549
▁shipping 55057
▁ne 439069
▁... 55036
▁finance 55027
▁id 55008
▁obtained 54996
▁awareness 54975
fe 71047
▁partner 54935
▁advisory 54921
let 54903
▁hospital 54885
▁mandate 54845
ok 54827
▁equality 54601
0, 54548
/1 54547
pping 54512
▁corresponding 54502
▁figure 54472
▁scope 54470
min 54469
▁agree 54438
▁sw 54416
▁plants 54343
▁accept 54322
ano 263321
▁appear 54305
▁cr 54261
▁aimed 54257
▁ideal 54254
▁fluid 54205
iting 54151
▁weather 54129
▁languages 54115
▁square 54094
▁raised 54039
▁educational 53974
▁* 74920
▁river 53837
▁manufacturer 53809
▁hour 53807
▁advanced 53788
▁(3) 53729
▁compliance 53724
▁flight 53715
▁gonna 53698
▁largest 53645
▁concept 53627
ell 56754
▁har 53530
▁plus 532274
▁fourth 53488
all 53480
▁platform 53435
alized 53411
ious 53368
▁ensuring 53336
▁frame 53332
▁approximately 53244
▁thousands 53237
40 60992
▁determine 53186
▁character 53134
▁meaning 53107
▁summit 53101
▁nice 53070
▁canadian 53023
▁su 1092406
▁nation 52880
▁cart 52824
ured 52799
▁strategies 52798
▁export 52786
▁und 3289161
▁institution 52736
▁mainly 52730
_ 53705
ances 52677
▁35 52675
▁write 52668
▁fruit 52666
hy 52649
▁fun 52643
related 52632
▁birth 52574
▁7. 52548
▁expert 52526
▁lawyers 52479
▁rich 52439
▁categories 52438
▁difference 52431
▁draw 52423
▁secure 52420
▁apartments 52412
▁offices 52399
pped 52351
▁sheet 52277
▁touch 52253
▁appeal 52247
▁chief 52242
with 52227
▁register 52204
▁upper 52203
▁survey 52189
ded 52189
▁er 275662
▁7, 59351
▁consumer 52146
▁comp 52135
tively 52110
▁den 1054245
▁eye 52079
▁pra 52066
▁zone 62000
free 52018
▁advice 51966
ding 51930
▁granted 51927
▁outer 51869
▁advantage 51865
▁approval 51854
▁seoul 51804
▁limit 51771
▁submit 51761
▁announced 51737
▁block 51713
▁informed 51703
▁foot 51671
▁famous 51660
▁wind 51617
▁closed 51566
▁spread 51554
▁wh 51547
▁fields 51523
ably 51522
▁ca 69749
▁establishing 51502
▁arm 51470
▁# 51396
▁privacy 51373
▁cookies 51371
▁remove 51369
ning 51338
▁combination 51318
▁join 51250
▁rise 51234
▁cancer 51226
ites 51218
▁pictures 51217
▁changed 51149
ress 51084
▁rent 51082
▁fe 51081
▁agent 51054
▁alternative 51047
▁links 50999
▁opened 50980
▁perform 50966
▁creating 50964
▁leaders 50945
-2 50914
▁google 50877
▁northern 50872
▁identify 50837
▁transmission 50822
▁worked 50763
▁iii 50730
▁trip 50707
▁input 50702
▁indicated 50699
▁moreover 50684
▁india 50681
▁actual 50584
▁shape 50569
ible 50540
▁diseases 50529
ages 50490
ft 50488
▁fresh 50469
▁universal 50468
▁degree 50432
ten 269754
▁inform 50420
▁certainly 50400
▁amendments 50391
▁(2 50373
▁furthermore 50317
▁female 50279
▁hiv 50232
▁track 50216
▁respective 50215
va 129544
▁networks 50191
▁password 50164
▁je 197574
▁8, 53093
▁2018 52317
▁critical 50103
▁duty 50075
▁numbers 50071
▁ship 50045
▁ba 49998
ler 61303
▁rome 49959
▁sufficient 49947
0. 49907
.2 49906
▁(3 49892
wn 49892
▁registration 49869
12 118060
▁bre 49856
this 49847
▁beauty 49826
▁plastic 49806
▁cold 49789
▁drugs 49787
▁accepted 49644
▁anyone 49621
▁purchase 49590
▁estimated 49564
ile 49562
mail 56588
▁border 49546
▁witnesses 49540
▁broad 49455
▁perhaps 49402
▁british 49382
▁poly 49340
▁heating 49327
▁object 49315
▁characteristics 49313
▁winter 49307
▁resolutions 49235
int 49193
▁goes 49192
son 49191
▁ideas 49165
▁del 3338835
▁specified 49140
▁2004 49137
ils 75314
au 130101
▁holding 49124
▁statements 49121
▁(10) 53637
▁ge 110360
– 49085
▁facilitate 49048
▁running 49008
▁competent 48975
▁2016 54364
▁signed 48960
1) 50394
▁installation 48953
▁advance 48918
▁bath 48894
▁filter 48892
▁moving 48869
▁fear 48863
▁recognized 48851
▁influence 48851
ig 117885
▁iron 48823
▁except 48823
▁package 48758
▁chemical 48753
▁risks 48724
mp 48701
▁introduction 48701
▁hall 48695
▁factor 48692
▁ireland 48668
-- 48663
▁released 48662
aries 48610
▁efficient 48601
▁registered 48560
ct 48499
▁flights 48481
▁listen 48458
▁spiritual 48454
cer 52175
ily 48446
▁improvement 48412
▁eat 48391
▁multiple 48376
day 48347
▁arab 48330
▁laid 48320
▁forest 48318
▁ye 48294
▁win 48290
▁host 48233
▁obtain 48206
▁8. 48141
▁trial 48117
ese 48107
▁felt 48076
tis 49201
▁fl 48033
▁plurality 48028
▁farm 48014
▁stability 47963
▁resource 47962
▁print 47883
ward 47865
▁recommendation 47780
▁audit 47733
▁probably 47730
▁baby 47727
▁aware 47697
▁writing 47633
▁prepare 47613
ino 136784
▁tourism 47597
▁enhance 47565
▁ref 47554
25 64663
▁debt 47533
▁channel 47528
▁expenditure 47522
ced 47519
od 47517
▁assets 47501
▁else 47410
▁tele 47373
par 78308
▁80 47348
▁organic 47339
0) 48635
▁positions 47311
▁continues 47301
▁scale 47284
▁: 357063
▁structural 47243
▁villa 47215
▁eight 47214
▁islands 47193
° 77648
▁shop 47161
▁voice 47148
▁customs 47144
level 47131
4) 47852
▁healthy 47103
▁ac 77731
▁shared 47060
art 56871
▁interesting 47026
▁bag 47021
▁guidance 46988
▁encourage 46948
und 46942
pl 46940
▁refugees 46928
▁books 46869
▁sur 1046867
90 50759
▁recommend 46815
▁cl 46788
▁500 51811
▁shower 46677
▁london 46631
▁adequate 46625
3) 48864
▁listed 46614
▁chair 46607
▁shopping 46578
▁patient 46569
▁cable 46525
▁assist 46511
6) 46449
▁login 46435
▁consultation 46377
▁format 46368
▁frequency 46338
▁quick 46330
▁proceedings 46263
▁9, 49492
▁race 46183
ade 46183
ined 46179
▁linked 46171
▁generation 46154
▁pick 46033
▁33 46012
▁russia 45995
▁trading 45988
▁dress 45979
ga 81543
▁situations 45940
▁colour 45903
▁properties 45882
11 93041
ud 57676
▁dildo 45796
▁fat 45792
▁constitution 45773
you 45737
▁legislative 45687
ass 56412
▁mer 50547
ty 45612
▁enforcement 45610
▁student 45594
▁mg 46249
▁cons 45586
▁mac 45568
ality 45563
are 212211
.. 55358
▁background 45539
▁ring 45531
▁thinking 45530
pp 45530
▁seek 45503
▁connect 45497
▁tests 45476
▁ja 45451
▁cat 45443
▁campaign 45442
▁wait 45431
▁brother 45406
▁teaching 45381
▁stress 45355
wa 45335
▁dry 45331
▁mountain 45298
den 93321
▁maybe 45228
▁saint 45214
▁accounts 45207
▁invention 45188
.) 45166
ale 184742
ner 73752
▁failure 45086
▁enterprises 45070
▁solid 45054
▁regards 45035
▁sell 45014
▁ta 45008
▁mexico 45008
▁played 44991
io 118893
▁worldwide 44980
▁custom 44960
▁window 44947
▁mature 44940
▁causes 44933
▁fin 164618
▁cre 49757
sh 44908
▁coffee 44900
▁effectively 44891
▁manufacturing 44823
▁driving 44821
▁seem 44810
▁contain 44783
▁players 44782
▁earlier 44770
▁70 44795
▁ratio 44738
▁fashion 44732
▁centres 44714
▁teen 44713
▁collaboration 44671
▁trafficking 44655
▁bill 44635
▁band 44620
wer 44606
▁conclusion 44531
▁otherwise 44515
▁performed 44511
▁expect 44507
▁charter 44490
▁combined 44481
▁officer 44473
ial 44469
▁fr 63840
▁resulting 44431
▁definition 44409
▁innovative 44399
▁switzerland 44372
▁represents 44359
▁90 44355
▁exhibition 44349
▁feed 44327
cing 44284
▁inf 44278
▁inner 44270
▁recognition 44246
▁substances 44238
▁die 3612113
▁bra 44204
building 44197
▁amended 44191
ently 44178
▁2003 44172
▁gain 44166
▁couple 44162
▁award 44160
▁reducing 44126
ked 44120
▁historical 44115
▁2001 44114
▁netherlands 44113
▁attached 44112
og 53977
ished 44058
5) 44852
▁club 44043
wing 44023
▁numerous 43993
▁(4) 45165
▁sm 43972
▁forth 43938
▁gra 43933
▁vice 43929
▁piece 43908
izing 43898
▁extremely 43876
▁cameltoe 43849
▁= 44821
▁optical 43810
vi 88941
▁mouth 43741
▁outdoor 43729
▁vision 43681
▁deliver 43673
ep 43638
▁becomes 43614
qu 76487
▁error 43567
▁valve 43497
▁pc 43480
▁developments 43477
ven 43458
▁leader 43448
▁warm 43433
▁prison 43427
▁compensation 43423
▁cheap 43376
▁relative 52896
▁amendment 43340
▁latin 43333
8) 44016
▁disarmament 43289
▁tube 43277
▁discussed 43273
▁title 43268
▁ce 680833
▁expression 43241
▁consists 43222
ib 52605
▁banks 43205
▁em 44256
pro 47544
mer 53230
des 64914
▁supports 43116
eth 43093
▁respectively 43082
▁asian 43074
▁playing 43066
low 43062
▁unless 43062
▁virus 43057
▁bottom 43040
▁2002 42997
▁jo 42995
▁currency 42977
▁festival 42906
▁discussions 42886
▁server 42858
▁witness 42857
▁feature 42839
▁buildings 42815
▁rep 42781
▁dog 42771
▁edge 42752
▁heaven 42738
60 51074
▁headquarters 42697
men 54489
▁2017 47789
▁consisting 42674
▁quantity 42662
▁booking 42645
▁2019 42632
▁monitor 42628
▁experiences 42612
▁transition 42612
▁extended 42610
▁gar 42588
▁happened 42572
▁vo 42518
▁concluded 42500
▁structures 42495
▁cock 42472
▁45 42449
▁priorities 42422
▁instance 42421
▁courses 42410
tra 67095
ared 42369
▁decide 42357
▁democracy 42355
ini 87184
▁differences 42346
▁iraq 42333
▁elections 42318
▁cars 42306
▁300 44670
▁medicine 42300
bility 42274
ii 42273
▁ministers 42263
ities 42221
cs 42216
▁businesses 42211
▁combat 42174
▁discuss 42171
▁flowers 42154
15 74776
ction 42136
▁pages 42115
▁9. 42095
▁info 42091
80 47338
▁lee 42055
▁cu 50606
▁eastern 42040
▁affect 42039
ight 42035
▁specifically 42035
▁launched 42010
▁powerful 41972
▁terrorism 41966
▁milk 41932
iv 41914
ther 41871
tely 41867
7) 41800
tives 41797
▁offering 41794
ining 41768
▁posts 41752
▁copy 41745
ug 41723
▁ser 209009
▁symptoms 41707
▁mode 41686
▁showed 41684
▁presentation 41659
▁correct 41639
▁judicial 41633
ton 41624
▁soft 41620
▁heavy 41573
▁sal 73200
▁institutional 41561
iled 41556
▁abuse 41532
lated 41524
▁manage 41520
ay 41478
▁rec 41469
▁entered 41464
▁prime 41460
▁(4 41438
▁electrical 41431
▁adopt 41332
▁governance 41305
,000 41283
ids 41282
▁(5 41277
▁houses 41274
▁consumers 41272
▁iv 41254
▁represent 41252
fa 51587
ah 41216
ice 41198
▁proper 41183
▁temporary 41180
▁worth 41170
▁chance 41170
▁grow 41152
▁installed 41150
▁bro 41093
tr 65549
▁arrangement 41045
▁) 62568
sa 40970
▁pen 40960
making 40953
ani 62946
▁outcome 40899
▁kept 40896
▁cd 40894
▁10. 40880
▁senior 40879
▁election 40859
▁van 40824
work 40819
▁religion 40816
tube 40808
▁firms 40789
▁ph 40785
▁australia 40783
▁compilation 40782
▁scheme 40770
▁player 40757
45 44136
head 40745
▁treated 40744
▁greece 40714
18 66352
▁menu 40684
▁consultations 40669
▁duration 40659
▁nine 40658
▁planned 40625
▁substance 40620
▁delivered 40616
▁cor 46724
▁boat 40584
▁occasion 40570
si 82012
▁substantially 40507
▁casino 40500
▁op 40549
▁refer 40452
ust 40447
alism 40410
▁flexible 40404
▁bet 40401
▁passed 40398
▁tourist 40395
▁difficulties 40384
▁wants 40382
▁cam 40382
.3 40376
▁vibrator 40360
▁palestinian 40360
▁indicator 40335
vers 40329
▁moved 40328
▁explained 40328
▁barcelona 40308
▁sides 40302
▁val 46571
▁records 40271
▁threat 40267
▁cycle 40266
▁cash 40263
22 55631
▁miss 40218
▁resistance 40198
▁telephone 40176
▁consequences 40172
▁pack 40143
wards 40094
▁commitments 40080
▁violations 40058
▁im 691147
13 63161
▁manager 40050
▁testing 40035
▁emissions 40025
▁weak 40018
▁pension 40002
▁respons 39999
▁confirmed 39977
zing 39960
▁hd 39936
▁protected 39902
▁comfortable 39896
▁et 4048937
▁identity 39879
▁torture 39826
▁container 39824
▁federation 39823
bed 39815
▁mal 93604
▁theme 39801
▁army 39799
▁lake 39799
▁officers 39793
▁david 39792
▁36 39764
▁chain 39759
▁ic 39747
ome 39732
▁automatic 39722
▁regulatory 39719
▁secondary 39695
add 39687
▁continuing 39652
▁feet 39637
▁sorry 39632
14 63226
▁slow 39583
▁turkey 39582
▁recorded 39578
▁attack 39577
▁kids 39553
▁brazil 39529
▁college 39525
▁huge 39512
▁looks 39505
▁standing 39501
▁si 1110681
▁ancient 39485
▁producing 39482
▁residents 39469
▁died 39459
▁hum 39428
▁powers 39416
▁toward 39390
▁index 39379
▁indicators 39375
▁rock 39363
▁male 39360
ned 39334
ink 39320
▁silver 39310
▁changing 39277
yo 39249
▁seat 39247
▁berlin 39247
▁pr 39240
▁names 39233
▁comm 39231
▁turned 39227
23 54322
▁os 53259
▁talking 39211
▁raise 39208
▁32 39194
24 54658
▁comfort 39167
▁exactly 39164
99 40178
▁jud 39105
▁alcohol 39082
▁bu 39081
▁southern 39071
▁payments 39051
▁interior 39033
bi 48620
▁database 39011
▁satellite 39005
▁song 38981
▁sample 38979
light 38962
▁thro 38960
▁ear 38960
▁represented 38931
▁corporate 38915
▁concrete 38911
ja 56016
▁bl 38888
▁facility 38879
▁television 38840
▁aircraft 38794
”. 57835
® 38747
▁organisations 38732
▁sport 44230
ect 38714
▁contracts 38709
▁terrace 38708
▁reaction 38697
19 81663
▁dream 38639
▁teachers 38620
▁happen 38598
▁pattern 38594
ju 38581
ture 38515
▁existence 38492
▁update 38475
tation 38472
▁mrs 38470
fully 38468
▁depending 38455
our 38438
▁signals 38403
▁sum 38402
▁gift 38395
▁factory 38379
dy 38374
▁translation 38372
▁sort 38368
ular 38364
iss 39929
▁valid 38341
▁coast 38338
▁residence 38322
▁carrying 38313
▁confidence 38257
▁killed 38218
ones 38215
▁organisation 52957
▁compare 38211
▁uk 38206
▁marriage 38205
▁catholic 38202
ose 55013
▁recording 38180
▁inspection 38171
▁crimes 38140
▁older 38101
unt 38100
▁invited 38098
▁secret 38071
▁button 38063
ching 38059
▁favour 38053
▁bearing 38051
$ 38047
▁salt 38005
▁figures 37996
board 37970
▁boy 37968
ko 48706
my 37965
▁hat 221644
▁conclusions 37949
▁tasks 37922
▁exist 37914
▁peacekeeping 37892
▁gen 38059
▁larger 37854
▁sugar 37852
▁closely 37838
▁vi 126355
▁effectiveness 37799
ou 76772
▁ongoing 37767
▁myself 37755
ier 83606
irs 37731
▁amateur 37716
▁speech 37693
▁cra 37673
▁dose 37653
▁tree 37635
▁obligation 37623
▁tried 37612
▁amounts 37604
▁welfare 37589
▁destination 37583
▁capable 37560
▁illegal 37544
▁cleaning 37532
▁desire 37513
cc 39988
car 55514
▁appointed 37480
▁mental 37472
▁undertaken 37463
▁tr 41038
▁unto 37452
▁forming 37436
▁firm 37428
ugh 37407
▁import 37391
▁allah 37390
▁au 1050373
▁sho 37359
▁switch 37347
▁sharing 37328
mar 49126
▁mom 37292
▁reflect 37283
70 41946
▁1: 37259
▁parallel 37253
▁10, 40188
▁stone 37214
▁regime 37210
▁transparency 37201
▁marine 37200
ill 37197
▁sold 37187
▁dark 37167
▁vital 37162
▁controlled 37159
▁chosen 37137
sc 37130
▁missions 37126
▁accident 37109
ley 37099
▁observed 37092
▁heads 37051
▁knew 37044
▁husband 37044
hr 37038
▁browser 37021
▁served 37004
▁atmosphere 36999
urs 72908
ya 39862
▁defence 36980
▁gr 45315
▁axis 36963
▁identification 36958
▁austria 36950
ibilities 36932
▁drawn 36927
▁sensor 36902
▁detail 36899
how 36892
▁tribunal 50439
▁forced 36878
▁tend 36866
bu 36845
21 54537
▁adults 36827
she 36820
▁twenty 36815
▁summary 36811
▁remaining 36776
nd 36762
▁involving 36735
▁fla 36724
ger 71768
▁height 36697
▁moon 36692
▁(12) 40497
▁previously 36623
▁cloud 36613
▁engineering 36607
▁significantly 36601
▁becoming 36582
▁count 36570
▁deb 36545
▁christians 36542
▁wheel 36525
elled 36510
▁visitors 36509
ank 36486
▁speaking 36460
▁duties 36429
▁evening 36388
▁limits 36387
▁forg 36369
▁camera 40020
-3 36366
▁learned 36351
▁leadership 36329
▁teacher 36327
cted 36322
inter 48992
▁para 1496411
▁1999 36307
▁respond 36304
hi 36300
▁preparing 36297
▁cal 46879
▁pol 36264
▁covenant 36257
▁teach 36237
▁disabled 36221
▁immediate 36209
▁neither 36209
vo 71890
▁hey 36204
▁examples 36184
▁bear 36183
▁kill 36171
▁automatically 36140
▁focused 36120
▁applying 36114
ni 51602
▁cup 36113
▁generate 36112
▁suffering 36097
▁cas 154009
fin 36088
▁brussels 36064
▁examination 36056
▁wrote 36011
▁» 99972
tes 122253
17 55855
▁facing 35953
▁es 1294384
here 35949
▁fifth 35930
zation 35925
▁ahead 35906
▁34 35902
▁swimming 35901
▁hom 35886
ire 97663
▁situated 35855
▁equ 35849
▁hearing 35840
* 35836
▁updated 35832
▁printing 35817
▁machines 35781
fs 45109
ancy 35775
▁dangerous 35760
▁replaced 35742
▁def 35742
▁camp 35724
▁(5) 38009
▁hit 35710
▁wa 35705
▁industries 35686
▁drink 35685
▁pump 35684
▁aims 35681
▁sets 35669
▁labor 35668
more 35664
▁independence 35647
▁match 35637
▁acting 35620
▁signs 35607
▁increasingly 35603
▁increases 35581
▁whatever 35570
▁remote 35550
iness 35539
▁sections 35531
▁guest 35513
▁disabilities 35504
▁constant 35502
▁helps 35502
▁route 35496
late 35475
▁dated 35473
▁videos 35467
▁percentage 35457
▁stakeholders 35414
▁load 35397
▁:: 35386
▁publication 35384
iti 61548
▁greek 35368
▁electricity 35364
▁cutting 35354
▁remained 35344
▁plug 35301
▁fabric 35295
▁entities 35290
▁showing 35266
ip 35232
▁predic 35227
,” 35202
▁meters 35202
▁sleep 35202
▁objects 35199
▁ball 35199
▁courts 35174
ari 85661
ising 35169
▁feeling 35167
▁ap 41360
▁unemployment 35148
▁nevertheless 35091
▁accessories 35085
▁driver 35081
8/ 35184
▁stars 35066
▁consistent 35017
▁diet 35003
ls 35000
▁cards 34993
ired 34971
▁restaurants 34971
ards 34956
▁occur 34917
▁thereby 34914
▁library 34904
quantitative 34895
▁mor 38445
mon 36948
▁statistical 34825
▁grant 34820
▁terminal 34812
▁instructions 34809
▁appears 34805
▁fit 34795
▁suggested 34789
ker 34788
▁38 34787
ek 34784
▁classic 34773
▁portugal 34765
▁continuous 34757
▁meat 34755
▁career 34749
▁revised 34742
▁disaster 34695
0,000 34692
▁collective 34684
bar 91051
▁yesterday 34639
▁1998 34634
▁budgetary 34628
▁peter 34628
▁swe 34623
ns 34596
▁latter 34587
▁wo 53965
▁enterprise 34573
▁judge 34573
▁brain 34570
▁usa 46276
gs 34499
▁drawing 34496
▁clients 34489
▁absence 34487
▁sessions 34486
▁sto 34482
▁considering 34476
▁extend 34468
▁belgium 34462
▁experienced 34453
▁facebook 34424
▁spent 34401
▁(6 34369
ute 39159
▁gl 34342
▁provincial 34334
▁operate 34331
▁joy 34309
26 46727
▁voluntary 34285
▁removed 34272
ries 34268
▁certificate 34259
▁isn 34250
▁ip 34249
▁controls 34246
ada 205005
du 39983
27 46883
▁revolution 34205
▁destruction 34186
▁mixture 34178
▁soul 34158
▁sl 34156
16 56693
▁expansion 34142
▁joined 34140
▁ru 34139
▁pair 34101
▁48 34056
▁pin 34054
▁nearly 34054
▁workshop 34053
▁polymer 34001
▁roman 33994
▁handle 33975
▁fa 125064
▁helped 33945
▁proportion 33938
▁managed 33934
▁taste 33929
▁leaving 33925
▁channels 33925
▁measuring 33922
▁walls 33915
▁egypt 33885
▁relatively 33884
@ 34151
▁edition 33873
▁luxury 33870
ky 33869
▁agents 33866
▁severe 33847
▁ethnic 33842
▁doubt 33838
▁clinical 33831
▁pieces 33819
▁investments 33807
▁imports 33807
▁voltage 33804
▁thin 33779
tle 33765
▁ski 33733
▁governor 33723
▁ingredients 33720
▁requirement 33705
▁conditioning 33699
▁coating 33689
▁lose 33668
▁detention 33655
▁spend 33647
.... 33634
ere 158055
back 33617
▁carrier 33589
▁reliable 33589
▁technological 33575
▁client 33564
▁transportation 33534
▁informal 33520
▁contacts 33491
▁12. 33469
▁advertising 33468
▁wave 33457
▁uniform 33436
je 54952
▁ourselves 33431
▁formal 33397
▁monetary 33367
▁peaceful 33345
▁000 78733
▁exposure 33333
▁orders 33331
▁geneva 33325
▁producers 33319
▁optim 33301
▁paragraphs 33247
▁exclusive 33234
▁achieving 33223
▁cool 33187
▁wonder 33183
▁attorneys 33179
▁allowing 33161
▁ver 216127
▁migration 33109
elling 33080
▁37 33073
vis 36496
▁charges 33021
▁trees 33003
▁11. 33002
▁ads 32993
▁mutual 32985
▁bright 32966
▁ice 32960
▁rain 32956
▁reg 39705
itting 32934
▁jerusalem 32933
ores 54792
▁auto 88795
7/ 32922
▁opinions 32886
▁visited 32880
▁deposit 32873
▁professor 32871
▁(200 32868
▁diameter 32859
▁gets 32859
▁stations 32858
▁fisheries 32854
▁returned 32835
▁quarter 32805
-4 32795
▁suggest 32794
▁trends 32785
▁wild 32785
▁straight 32773
▁trend 32772
▁prayer 32752
▁fore 32750
▁pointed 32748
▁adapted 32740
▁threshold 32722
▁indicate 32706
▁properly 32705
▁gro 32700
▁yellow 32697
▁manual 32667
28 45891
▁strip 32638
200 32861
▁12, 33481
▁stored 32614
▁ed 252520
▁inc 49117
▁spot 32571
ires 32565
za 84616
iling 32562
most 32526
ub 37032
▁accounting 32499
▁module 32493
▁contents 32492
▁opposite 32487
body 32477
▁truly 32466
▁comply 32448
▁specialized 32444
like 32440
▁ecu 32438
▁jurisdiction 32427
▁pan 32427
▁journey 32425
hes 32392
hing 32353
▁launch 32346
▁farmers 32339
▁undp 32321
▁smaller 32318
▁israeli 32310
▁ban 32301
▁artists 32242
▁heritage 32236
▁homes 32236
house 32228
nam 32228
▁« 328099
iz 58527
▁profit 32195
▁11, 33483
▁qu 476369
▁stream 32158
▁determining 32155
▁mine 32144
95 32999
▁diversity 32135
▁mus 32127
▁vulnerable 32122
▁kinds 32118
▁quiet 32113
▁transparent 32107
▁motion 32091
▁knows 32081
▁sme 32077
▁brothers 32045
▁smart 32042
▁sand 32041
▁relief 32039
ises 32031
▁bureau 41939
▁opposition 32023
▁expenses 32013
▁architecture 32011
▁welcomed 31972
▁rapid 31969
▁perspective 31969
▁exp 31965
▁competitive 31954
▁ps 31915
▁powder 31897
▁hong 31897
▁stable 31858
▁failed 31858
▁conversion 31840
▁settlement 31812
▁christmas 31799
ith 31799
uring 31792
▁rail 31785
▁finish 31776
▁branch 31770
▁seeking 31760
▁dollars 34992
▁typical 31714
▁presidency 31708
▁grounds 31669
▁colors 31666
tor 31665
ick 31655
▁fees 31642
▁documentation 31636
▁audio 31630
▁czech 31609
▁gone 31609
▁150 31603
anti 99625
▁relates 31600
▁wonderful 31572
▁protein 31572
▁drop 31565
arian 31564
▁assess 31552
▁ngo 31551
▁congress 31530
off 31522
pi 47532
9) 31510
▁mediterranean 31486
▁mat 31479
▁forget 31466
6/ 31516
ency 31455
que 94934
▁actively 31414
tu 60398
ual 31391
▁owner 31380
”, 38733
▁territories 31363
▁bedroom 31363
▁waiting 31353
▁exc 31349
▁covering 31345
▁explain 31339
▁whereas 31312
▁governing 31309
▁leg 31270
▁leaves 31248
▁dealing 31247
▁1990 31241
▁iran 31235
35 35476
▁raw 31207
▁expertise 31202
▁repair 31201
▁sweden 31184
water 31182
▁battery 31137
ories 31137
▁snow 31123
tri 40342
▁sky 31082
▁techniques 31077
▁(6) 33321
▁procurement 31027
ata 277787
▁bridge 31008
▁arrival 31005
▁demands 30996
▁rev 30992
ara 65876
▁leather 30970
75 32804
▁packaging 30945
▁pilot 30940
▁participating 30901
▁accordingly 30896
▁plane 30894
gen 93128
cking 30871
▁comparison 30859
43 34183
▁helping 30848
▁reflected 30843
ement 75113
▁bas 58710
▁attacks 30822
▁delay 30819
gr 32804
▁locations 30813
▁0. 30810
▁tomorrow 30802
▁br 43325
▁measurement 30783
cn 32181
▁membership 30777
pes 30770
cm 30735
▁av 50841
▁solar 30716
▁equivalent 30715
val 30706
▁considerable 30700
rate 30699
▁width 30694
▁furniture 30693
▁mag 40071
48 35893
▁applies 30653
▁supplier 30628
▁supreme 30609
▁keeping 30607
▁millennium 30573
ica 106742
cent 30569
▁fill 30568
oc 30548
▁ends 30543
▁teams 30526
▁onto 30512
▁preferably 30512
▁actors 30506
▁wear 30494
▁crucial 30491
ational 30491
▁leads 30486
▁ocean 30480
▁sick 30478
▁flower 30472
▁interview 30468
▁waters 30458
▁max 30445
▁interface 30438
▁recommends 30428
▁angle 30418
▁planet 30396
▁disc 30382
▁rating 30335
▁sla 30324
▁congreg 30323
▁judgment 30323
▁divided 30293
▁overview 30255
▁hydrogen 30254
▁reply 30239
presence 30237
▁facts 30213
ends 30207
▁kg 30203
used 30201
?" 30200
▁manufacture 30197
▁ton 30191
▁flash 30177
▁extending 30154
▁daughter 30149
mi 70528
▁apart 30140
ively 30137
▁reservation 30130
▁swiss 30120
▁schedule 30119
▁hydro 30107
▁wor 30091
▁filled 30077
▁operators 30069
▁friendly 30065
▁declared 30052
istic 30047
▁dist 30033
▁encouraged 30026
can 30021
▁hire 30009
▁provisional 30002
▁involvement 30001
▁gap 29995
▁subsequent 29990
3/ 30480
▁thousand 29953
▁engaged 29944
▁considers 29938
▁substrate 29934
▁pu 48812
▁movie 29865
▁targets 29849
▁android 29843
▁recognize 29838
rd 29835
▁greatest 29821
▁supplement 29797
▁missing 29781
ki 29780
▁looked 29778
▁lived 29777
▁ok 29766
▁covers 29757
▁adjustment 29739
▁tro 29730
▁fellow 29726
▁maintained 29723
▁arts 29718
▁remind 29714
▁impossible 29676
ital 29671
▁successfully 29660
▁dam 29647
▁intervention 29641
▁poland 29636
▁reasonable 29628
▁participated 29620
▁metropolitan 29601
▁finding 29594
▁generated 29584
jo 44155
▁mu 34782
▁adult 29577
▁delegations 29563
▁mounted 29563
▁analy 29559
▁bringing 29542
▁prefer 29522
▁injection 29507
▁collected 29504
46 33233
▁1995 29476
lation 29472
▁vienna 29463
▁friday 29450
▁evil 29446
▁pretty 29421
▁pollution 29415
▁confirm 29377
▁abroad 29373
ken 51521
▁manufacturers 29364
▁2: 29344
▁vocational 29344
▁bi 29330
▁stra 29329
tional 29322
▁namely 29321
▁supplies 29309
▁easier 29302
▁reserve 29301
room 29290
▁artist 29285
▁approaches 29280
▁predetermined 29266
▁(7 29260
▁stressed 29248
bl 37329
▁1997 29238
▁gene 29235
mal 29214
ented 29212
▁therapy 29211
▁mixed 29208
ishing 29207
▁occurred 29205
▁multilateral 29198
▁attended 29196
▁lu 39417
▁guy 29178
▁outstanding 29175
▁substantial 29150
ums 32230
tain 29130
▁royal 29108
▁consent 29106
▁elimination 29105
▁tickets 29093
▁install 29092
▁solidarity 29088
4/ 29207
▁topic 29050
▁revealed 29050
including 29038
▁las 1970015
▁ticket 29031
', 28989
:00 28985
▁messages 28979
▁sudan 28967
(2) 28967
49 32815
▁dimension 28958
▁breath 28957
▁marked 28951
▁1996 28939
▁55 28918
▁rose 28913
▁retail 28904
▁str 28885
▁loans 28882
▁forex 28850
▁magnetic 28837
▁constitutional 28788
(1) 28767
▁treat 28761
▁consensus 28760
5/ 29080
▁dates 28743
br 46758
was 28723
▁walking 28707
▁pi 40044
une 412303
▁restrictions 28664
▁connecting 28664
▁elected 28657
tel 43145
▁counsel 28642
▁collect 28634
▁deputy 28629
▁lies 28628
▁regularly 28621
▁directed 28609
book 28606
▁(14) 31548
▁functioning 28589
ind 31642
▁frequently 28574
ased 28571
▁historic 28569
▁burden 28556
but 28555
▁optional 28533
cting 28517
wide 28501
29 39737
▁sweet 28480
-5 28475
▁functional 28473
▁operator 28469
▁economies 28468
▁urgent 28456
pre 28444
▁resort 28428
fr 37124
▁15, 28423
▁hidden 28422
▁none 28406
▁corruption 28404
▁14, 28401
▁taxes 28397
▁judges 28385
ature 28384
▁imposed 28384
▁gang 28381
▁kid 28375
▁extreme 28360
▁widely 28360
▁named 28339
▁dev 28332
fying 28286
▁sir 28269
▁rear 28264
▁pure 28262
▁stu 28258
▁periods 28243
▁kit 28227
▁blog 28224
▁composed 28222
▁transactions 28221
▁publications 28215
▁calling 28215
▁measured 28207
▁eesc 28188
▁(20) 30739
▁designated 28186
▁radiation 28182
▁addressing 28179
▁interpretation 28178
▁exception 28172
]. 32188
vel 28151
ues 37189
▁welcomes 28134
▁finished 28099
▁suppliers 28068
▁smooth 28064
▁creative 28060
▁periodic 28054
ita 102737
▁detection 28023
▁brief 28022
▁bal 37863
▁deals 28011
▁subjects 28009
▁worship 28008
▁13. 28757
▁sunday 28001
▁fee 27999
▁minute 27993
▁conferences 27988
▁domain 27986
ring 27983
▁battle 27982
▁formation 66121
cies 27976
▁accessible 27976
▁contrary 27973
▁bel 28181
▁tank 27943
▁principal 56320
era 105354
▁pres 38971
▁cuba 27895
▁holidays 27894
▁extensive 27893
▁enhanced 27879
▁primarily 27876
▁unable 27856
▁mary 27853
▁hundred 27853
▁appearance 27852
▁ep 27847
▁caribbean 27843
▁bedrooms 27837
▁mention 27834
▁pal 33305
▁associations 27823
▁39 27821
▁dance 27814
98 28874
▁intention 27807
▁loc 27803
what 27797
▁determination 27781
▁strongly 27780
▁alleged 27780
▁acceptable 27756
▁400 31104
▁oral 27734
▁warning 27728
ret 27724
▁plenary 27714
▁professionals 27709
▁gallery 27703
cl 31882
▁explore 27695
44 30629
ery 27692
▁oj 27680
▁stainless 27678
▁entrance 27661
▁researchers 27648
▁dynamic 27638
▁departments 27636
▁65 27633
▁madrid 27622
▁settings 27621
▁blowjob 27616
▁bull 27613
▁expand 27606
uses 27598
▁aids 27598
▁findings 27595
▁75 27587
▁hi 27586
▁completion 27581
▁assigned 27570
▁distributed 27569
▁preliminary 27559
▁removal 27554
▁cop 27553
▁hy 27541
▁sanctions 27534
▁serving 27524
▁introduce 27506
▁civilian 27505
▁spa 27504
▁ke 27502
▁mobility 27482
ders 27479
ition 27475
▁founded 27466
▁advantages 27455
▁yo 38708
▁punishment 27451
▁shoes 27448
▁bla 27443
▁ali 27430
ize 27426
▁char 27421
▁resin 27409
▁recover 27392
▁acc 34797
▁rubber 27359
▁(18+), 27359
▁attend 27349
▁topics 27348
mass 27343
▁navigation 27341
az 27334
▁beds 27333
▁gross 27330
▁decrease 27323
▁100% 27321
▁happens 27318
▁updates 27308
▁ev 27307
▁fifty 27261
▁fur 27258
▁sch 91773
▁pacific 27226
▁subs 27222
▁mountains 27196
▁maintaining 27185
▁programming 27157
▁movements 27155
▁tradition 27136
▁guarantees 27132
▁cook 27128
▁mechanical 27120
▁pl 28383
▁luxembourg 27108
500 27106
▁scene 27096
▁vessels 27092
▁wealth 27090
▁undertaking 27087
▁conservation 27081
▁millions 39867
▁instant 27074
fo 38308
▁disposed 27056
▁tables 27053
▁exports 27052
▁representation 27029
▁magazine 27026
▁conflicts 27021
▁mess 27017
▁logo 27015
ord 34161
▁monday 27013
▁14. 28252
▁soil 26997
lie 33262
fy 26978
▁evolution 26974
▁tea 26963
berg 26943
▁false 26937
ides 26936
9/ 27777
:: 26909
aring 26898
▁treaties 26896
fer 56214
igh 26870
▁bilateral 26850
▁(199 26847
▁croatia 26829
▁fix 26822
▁biennium 26812
cons 26802
ory 26792
▁dimensions 26780
▁closer 26763
▁18, 26762
▁fell 26762
▁wire 26752
right 26742
▁suffer 26741
▁defend 26736
▁thy 26735
▁accompanied 26722
▁argentina 26700
lied 26696
there 26691
▁binding 26691
▁sequence 26684
▁choosing 26677
▁metres 26673
2/ 27206
▁replace 26617
▁letters 26615
▁hang 26608
▁laser 26602
▁brings 26581
▁candidate 26577
down 26576
▁appointment 26567
phone 26547
▁sam 26515
▁slightly 26501
2- 28983
▁contemporary 26496
▁dust 26468
▁emerging 26438
▁revenue 26436
▁15. 28571
▁reforms 26433
▁transmitted 26397
ona 43431
ser 30569
▁desired 26387
▁anniversary 26385
▁inv 26385
▁ham 26378
▁carefully 26375
over 26373
▁competitiveness 26358
▁valley 26344
▁injury 26334
▁denmark 26330
▁fulfil 26330
▁slo 26321
form 37285
ham 26303
▁candidates 26302
▁ide 26297
> 30746
▁appeared 26283
▁santa 36851
oj 26274
▁victim 26269
▁visual 26267
▁engage 26265
▁alle 341322
▁alia 26247
called 26239
▁attempt 26208
▁adding 26203
31 44371
▁pur 26202
▁modified 26196
ali 131070
▁managing 26186
▁cy 26183
▁biological 26183
▁visits 26179
▁surrounding 26177
▁newsletter 26172
▁ko 34624
▁compatible 26144
▁railway 26137
▁stores 26137
▁mix 26136
▁posted 26130
▁define 26122
▁proceed 26106
▁© 26230
€ 27424
▁theory 26091
▁contrast 26088
▁eligible 26087
▁applicant 26068
zz 33844
dr 26046
▁entity 26040
lies 26032
▁13, 27780
▁chile 26015
▁cast 26003
▁solve 25993
▁sensitive 25978
▁exploitation 25969
ium 25965
▁fri 25963
33 30411
'. 25955
▁les 3229020
▁sit 25945
▁presents 25940
ili 44193
▁decade 25928
▁partnerships 25921
▁preventing 25919
▁prosecution 25918
▁sing 25904
▁depends 25898
▁surgery 25898
▁roll 25885
▁constitute 25871
▁monthly 25866
▁2010, 25865
▁employed 25852
▁printed 25846
▁ill 25842
▁threats 25830
▁corporation 25828
▁tower 25824
▁permit 25824
▁suite 62332
wo 25820
▁mol 28178
▁household 25788
▁thermal 25785
amp 25782
47 28569
▁believed 25772
▁ml 25755
▁(11) 28746
▁golf 25746
▁stories 25744
▁dra 25740
▁electro 25710
▁violation 25701
▁calendar 25697
▁thickness 25695
▁mas 39555
from 25694
▁sought 25676
ives 25674
row 25665
ron 30925
teous 25648
▁vertical 25646
▁2009, 25643
ming 25642
▁elegant 25626
▁married 25585
ware 25583
▁ur 26467
▁(7) 27991
▁2008, 25564
act 25562
▁aspect 25560
▁faced 25558
▁prize 25557
ences 25554
ices 25553
▁intelligence 25490
▁parameters 25480
▁score 25464
▁supplied 25450
▁certification 25449
▁ber 26592
ik 45949
▁classes 25443
▁hostels 25438
▁workshops 25424
▁submission 25419
▁fail 25414
▁handling 25412
▁passage 25410
▁column 25398
▁pun 25365
▁relax 25362
▁lessons 25356
▁sor 25349
▁transferred 25347
▁inclusion 25343
cu 40032
▁16. 26901
▁boats 25335
▁lay 25322
▁col 61213
▁kong 25309
▁mil 27546
▁tissue 25277
▁eco 25274
▁analdin 25273
▁harmon 25271
▁mail 25266
▁calculated 25265
▁defense 25264
▁committees 25259
▁examine 25253
▁occup 25237
▁der 3842306
alisation 25227
▁besides 25206
▁cri 25206
▁roof 25204
▁sitting 25176
▁stages 25169
▁afghanistan 25164
▁guys 25162
▁(10 25157
▁temple 25154
▁gear 25150
dec 25139
▁unfortunately 25116
▁aw 25114
▁shaft 25110
▁observations 25095
▁ukraine 25093
▁normally 25088
cher 55111
▁riding 25082
▁conventions 25079
▁accession 25079
▁desk 25068
▁rare 25055
▁vat 25054
▁fol 25048
▁sad 25042
▁machinery 25034
▁ir 50195
▁tap 25029
▁sustainability 25018
▁disposal 25008
▁blow 25003
▁album 24996
▁nearby 24986
▁murder 24977
▁universities 24965
▁chat 24941
▁worry 24933
▁lady 24932
▁fiscal 24929
▁una 1945527
▁tw 24924
▁shares 24908
▁contributed 24895
km 24953
▁2012, 24881
▁infection 24869
▁pet 24862
ru 29511
▁depth 24848
via 26617
▁occupied 24828
▁loan 24828
▁prin 24827
▁guaranteed 24826
▁clothes 24822
▁particles 24816
yers 24815
sp 31846
▁visiting 24806
▁rod 24802
▁2007, 24798
gh 24790
▁humans 24788
▁hence 24787
▁investig 24780
▁1994 25633
▁stands 24766
▁intellectual 24763
▁coverage 24753
▁seeing 24744
▁compounds 24742
%. 24739
▁noise 24730
▁dad 24722
▁twice 24720
▁ben 55670
▁valuable 24716
▁righ 24711
ential 24710
▁speci 24705
▁2011, 24689
▁achievement 24680
37 29267
▁42 24667
▁schemes 24665
▁tips 24661
▁vol 48529
▁emphasis 24638
▁realize 24637
▁ran 24636
▁indian 24630
▁willing 24629
▁tab 24624
ann 33850
▁putting 24586
▁surfaces 24582
ort 29634
lets 24565
▁implications 24559
cious 24559
▁charged 24555
▁terrorist 24549
▁visible 24548
▁sentence 24546
▁wedding 24542
cr 26646
▁unity 24539
ame 24532
▁crystal 24515
▁discount 24502
[ 39646
▁hell 24496
gra 32427
▁faithful 24485
ination 24485
▁amazing 24468
▁journal 24467
▁estimates 24466
▁scheduled 24464
▁brown 24457
▁arrived 24447
▁integrity 24442
▁pope 24436
very 24430
▁discharge 24425
▁script 24409
▁bay 24405
▁bap 24390
ora 70880
▁difficulty 24371
36 28238
▁virtual 24366
▁protecting 24355
▁(8 24347
hold 24343
▁horse 24340
▁vessel 24331
▁hundreds 24273
cas 28033
▁dar 70293
▁shops 24246
▁plasma 24243
▁pleasure 24225
▁honor 24224
▁gre 24222
▁adjacent 24219
▁46 24218
kind 24205
org 30102
41 27209
▁attitude 24173
▁clo 24172
▁providers 24169
▁bread 24169
▁shell 24157
▁flexibility 24154
▁reverse 24150
▁mini 24283
col 30531
▁ladies 24133
▁biggest 24125
▁sil 24123
▁strap 24117
▁spaces 24115
▁corner 24114
▁ob 78745
▁iso 24108
▁landscape 24104
▁2006, 24093
▁improvements 24093
▁engagement 24092
▁balanced 24064
▁bound 24062
▁pdf 24059
▁employee 24056
▁fighting 24051
▁shift 24042
▁symbol 24037
▁complaints 24033
ense 24031
ville 24023
▁sister 24020
85 25734
▁authorized 23999
▁resulted 23987
▁scientists 23985
▁finland 23980
▁believes 23979
▁danger 23967
▁bought 23964
▁characters 23957
▁asking 23957
▁ink 23951
▁holder 23944
▁wet 23939
▁degrees 23937
▁label 23928
▁ty 23922
▁cle 23922
▁(8) 26368
▁tre 84156
▁temp 23911
class 23902
▁pipe 23896
▁tu 135912
▁conf 33949
▁consult 23886
hand 23883
:30 23881
▁dro 23872
▁wireless 23870
▁afternoon 23846
▁boys 23829
▁understood 23827
▁199 23827
▁humanity 23814
▁bor 23811
▁ros 23810
▁newly 23804
▁heading 23803
▁breast 23800
ena 36947
▁depend 23775
▁struggle 23768
▁penetration 23754
▁apps 23743
▁generating 23739
▁parent 23736
▁wishes 23730
bal 23722
▁faces 23712
isation 39864
▁provider 23706
▁pleased 23687
▁convert 23687
▁dinner 23684
▁overcome 23681
ever 23680
▁entirely 23678
▁passion 23676
itation 23668
▁ended 23667
▁wal 23666
▁exposed 23660
▁appreciation 23658
box 23648
▁subsequently 23647
▁qualified 23640
▁falling 23635
▁academic 23625
▁reviewed 23625
▁amending 23625
qn 23620
-6 23615
▁divine 23606
▁lamp 23606
▁spending 23598
▁seed 23587
▁satisfaction 23585
▁bike 23585
▁ger 34216
▁clothing 23571
▁representing 23570
▁pat 29443
▁(16) 26031
▁operated 23560
▁license 23558
economic 23556
▁decades 23550
▁repe 23546
▁bri 23545
▁17. 25562
▁beam 23541
38 26771
▁20, 23537
▁studied 23531
▁borders 23522
▁refers 23520
▁islamic 23520
▁bless 23512
▁talks 23510
▁tor 33339
▁venice 23475
ain 23475
▁catch 23472
▁2005, 23471
ending 23469
▁guided 23467
▁priest 23466
▁vegetables 23465
▁emphas 23461
▁entertainment 23459
▁seriously 23455
▁clock 23454
yed 23448
ners 23437
▁specifications 23424
▁raising 23419
▁vis 38152
▁shot 23397
▁blind 23392
▁trouble 23390
▁med 23390
▁pm 23384
▁enabling 23378
▁3: 23371
set 23360
▁substantive 23356
▁controlling 23350
▁sco 23346
▁clos 23346
▁ordin 23344
▁suffered 23338
▁pos 33626
uting 23325
ession 23325
oh 23322
▁laboratory 23320
▁mostly 23319
▁drinking 23319
▁audience 23318
▁ups 23311
▁productivity 23311
mark 23307
▁fly 23305
▁meant 23301
▁crow 23294
▁1993 23723
that 23284
▁displaced 23279
▁absolute 23279
▁norway 23269
▁mi 166830
▁pil 23261
▁tom 27549
cts 23254
▁guard 23251
▁insert 23240
96 24766
▁milan 23234
▁savings 23207
▁immigration 23204
▁caught 23202
▁absolutely 23196
▁premium 23195
▁hur 23188
▁los 2701800
ado 267636
▁answers 23178
▁england 23176
▁investors 23172
▁wasn 23169
▁dining 23166
▁contracting 23162
▁196 23155
▁sens 37239
▁ris 34145
▁apple 23142
▁racial 23139
▁turning 23138
") 23135
tivity 23131
▁trump 23126
ero 58019
▁cooling 23119
▁pri 23106
▁targeted 23101
▁prophe 23099
▁eliminate 23087
▁18. 24772
▁favorite 23040
ign 23039
cre 23034
▁rapidly 23033
▁pla 29904
▁serum 23025
▁spoke 23014
▁pull 23004
▁vacation 22999
▁dispute 22996
chair 22994
▁reception 22983
▁tags 22982
alities 22977
▁verification 22967
97 23688
42 25613
▁costa 34180
▁consequently 22942
▁owners 22942
▁push 22940
ater 22906
▁lighting 22893
▁ve 39650
ping 22867
▁exceed 22866
▁suspension 22861
▁accurate 22861
▁tur 23317
▁pad 22847
▁patterns 22844
▁fans 22835
▁notification 22833
▁doors 22830
▁muscle 22829
▁maritime 22822
▁ordinary 22814
▁suit 22811
▁° 29673
▁rehabilitation 22800
▁43 22793
▁saturday 22783
▁twitter 22780
▁alkyl 22771
2). 22767
▁gdp 22761
tiz 22761
▁studio 39164
▁belong 22744
condition 22743
▁constantly 22742
▁chemicals 22732
▁patent 22730
cle 22728
▁relationships 22719
▁strengthened 22714
▁lock 22713
▁exists 22712
inted 22698
minute 22697
▁starts 22695
▁liability 22681
▁ships 22668
▁loved 22660
▁prove 22659
▁squ 22659
▁classification 22651
▁broken 22646
▁transfers 22642
▁cream 22641
▁hearts 22641
▁zero 22641
▁colombia 22636
acy 22635
▁losses 22627
▁painting 22625
ural 22623
▁derived 22618
4- 23469
▁totally 22612
▁vast 22611
▁flows 22601
▁euros 22595
5% 23399
▁enables 22573
▁wage 22565
▁ceremony 22559
ering 22545
%, 32420
asing 22533
eno 28922
▁gate 22532
▁belie 22526
▁masturbation 22522
▁promise 22515
▁[...] 24926
ai 76062
sub 22505
▁eventually 22502
▁servants 22496
pos 30984
▁novel 22449
▁congo 22442
▁sixth 22435
▁cooperate 22432
▁16, 22426
▁dep 22403
▁decline 22398
ato 343186
uk 22368
▁proof 22365
▁transform 22363
▁hole 22362
▁intermediate 22358
▁geographical 22353
▁castle 22346
▁flood 22342
▁refugee 22338
-10 22337
▁ruling 22325
▁ordered 22320
▁85 22316
▁acquisition 22309
▁subparagraph 22305
▁asylum 22304
▁120 22303
▁examined 22295
aching 22292
▁attra 22289
▁seal 22284
▁indicates 22280
▁conventional 22275
▁56 22275
▁controller 22263
▁surveillance 22446
▁involve 22249
▁fac 22239
▁faster 22236
▁44 22234
▁fle 22231
▁investigations 22224
▁encouraging 22223
cha 31791
▁empty 22218
▁harm 22216
▁moral 22204
▁imagine 22198
▁dem 680479
ray 22194
▁closing 22190
care 22174
▁configuration 22163
▁britain 22158
▁toilet 22158
▁surely 22151
▁pus 22148
▁expectations 22147
▁execution 22146
▁fiber 22137
▁seconds 22134
▁votes 22134
▁sons 22131
▁enhancing 22131
▁oxygen 22105
▁2013, 22103
▁ze 22093
▁destroyed 22082
-8 22080
pon 22080
32 25968
▁pharmaceutical 22068
ss 36723
▁highlighted 22052
▁mc 22051
▁shemale 22051
▁variable 22043
▁zones 28278
▁sending 22030
▁sim 22026
▁visibility 22017
af 21998
▁belt 21998
▁txxx 21991
.5 21989
ulated 21986
▁resident 21984
▁largely 21980
▁coun 21971
ways 21969
▁populations 21969
▁thou 21963
▁lots 21958
▁soldiers 21949
▁codes 21946
▁awarded 21940
tal 21939
▁golden 21935
▁convenient 21932
▁allocated 21923
▁01 21919
▁musical 21916
▁palace 21910
▁couldn 21893
▁liter 21881
▁cumshot 21874
alis 21864
oma 21864
trans 21862
▁decree 21861
friend 21860
▁superior 32468
ares 24968
▁cotton 21836
▁sy 21822
▁jews 21820
▁politics 21818
▁passengers 21818
▁washing 21815
▁passing 21815
▁undertakings 21813
first 21810
▁il 2833063
ple 21805
▁cyprus 21795
▁apos 21787
aids 21783
▁uh 21781
▁outlet 21780
▁ju 21769
▁expanded 21762
▁churches 21749
▁adverse 21742
» 116037
▁margin 21726
▁narrow 21725
▁causing 21716
▁streets 21712
▁writ 21710
▁coordinated 21706
▁cho 21703
▁tested 21703
▁genuine 21696
▁protective 21690
▁root 21684
▁whereby 21683
▁supposed 21681
= 22631
eller 22596
▁47 21662
wood 21651
▁films 21646
get 21644
app 32204
▁possibilities 21635
▁literature 21627
▁bars 21623
▁usd 21604
▁inspired 21593
▁ut 21588
▁communicate 21585
▁41 21583
▁transaction 21582
▁2004, 21580
ash 21574
quality 21563
▁roller 21559
▁exceptional 21557
▁yours 21556
▁fan 21553
▁greatly 21549
▁quar 21544
▁selling 21538
▁county 21533
aging 21532
▁disp 21525
▁slot 21522
▁arrested 21515
▁allocation 21514
77 25655
▁saved 21498
▁tag 53788
▁identifying 21487
▁peak 21484
▁demonstrated 21472
▁publish 21472
▁20. 24468
▁stuff 21469
ush 21456
▁bul 21452
▁pregnant 21452
▁banking 21442
▁romania 21434
▁outcomes 21434
▁drivers 21432
▁connections 21432
▁perfectly 21427
▁honour 21421
▁discovered 21419
▁supp 21414
▁essentially 21413
▁cos 28566
▁timely 21404
▁penalty 21401
▁occupation 21399
wi 21396
ori 63103
▁managers 21394
mes 45158
▁antibody 21390
▁turkish 21377
▁displayed 21374
top 21374
▁regardless 21371
▁parliamentary 21363
▁bags 21346
▁dig 21338
pper 21337
▁restructuring 21331
sta 22322
ult 21307
▁departure 21298
▁fraud 21287
▁careful 21286
aged 21278
▁massage 21272
▁pleasant 21267
▁runs 21266
▁21. 23249
ici 70391
▁rejected 21260
▁electoral 21252
▁dear 21250
cal 21248
▁responses 21234
▁unicef 21233
▁balcony 21227
▁horizontal 21223
▁rotation 21217
▁toys 21211
▁birds 21210
▁doctors 21209
▁cer 37210
▁forests 21201
▁segment 21196
comp 21193
av 36870
▁explo 21193
oni 49909
▁involves 21182
where 21179
▁universe 21164
▁grace 21157
eding 21151
ather 21150
▁bottle 21137
▁exact 21136
ration 21122
▁gun 21120
▁chronic 21119
▁renewable 21113
ree 21113
▁wisdom 21108
▁contra 143013
34 24662
aneous 21097
▁han 164922
▁thursday 21092
/5 21088
ales 146777
▁250 21672
▁entering 21077
▁eating 21075
cor 21265
▁registry 21071
lying 21068
100 22797
▁domin 21052
▁explains 21047
aling 21038
▁nam 21037
▁stem 21032
ren 25507
▁replacement 21010
▁rising 21010
▁deliber 21001
▁coupled 20990
▁awards 20967
dll 20964
born 20955
ols 20951
▁recruitment 20945
▁wooden 20927
pla 20916
eter 20913
using 20911
▁beings 20908
eds 20906
isted 20904
▁dutch 20894
▁19. 24477
▁< 23164
▁um 429852
inafter 20876
▁milf 20872
who 20872
▁illness 20868
▁songs 20867
ended 20861
▁incorporated 20859
▁syrian 20849
su 20846
▁realized 20830
▁asset 20830
volume 20827
▁elderly 20821
▁1992 20820
▁surrounded 20820
▁mayor 76099
▁phen 20814
▁cohesion 20813
▁cylinder 20803
▁; 111045
▁accountability 20801
▁highlight 20797
tre 58006
lion 20792
▁thread 20786
▁coal 20786
▁interim 20779
▁processed 20773
scale 20771
▁ble 20769
▁prescribed 20768
rom 29404
alised 20761
▁seemed 20760
▁directives 20757
▁practic 20755
▁foods 20750
▁cooking 20739
▁jewish 20736
▁worker 20731
▁medicines 20731
▁camping 20924
dis 21975
▁ter 29870
▁haven 20712
▁2003, 20707
▁feedback 20702
▁dna 20701
▁skip 20685
made 20675
1/ 23383
▁hill 20651
▁tours 20643
▁taught 20639
▁assistant 20635
▁sharp 20624
▁aged 20609
▁behaviour 20608
▁socio 20596
65 23960
▁minority 20580
▁cro 28004
▁minor 20571
key 20570
hel 20568
▁ni 101942
▁incident 20548
▁ga 20536
▁ele 20527
▁rice 20498
▁resolve 20496
▁arrest 20495
▁hol 20487
serum 20483
▁lisbon 20478
▁disk 20477
new 20468
▁emphasized 20459
▁acquired 20458
▁samples 20456
▁49 20453
▁2002, 20453
▁gradu 20428
▁thorough 20421
▁excess 20419
bes 43140
▁lift 20412
▁samsung 20412
▁supervision 20405
▁600 24077
▁employers 20399
▁screw 20398
uch 34394
▁regret 20395
esis 20385
▁worse 20372
▁era 134707
▁separation 20370
▁mirror 20367
going 20366
▁hostel 20365
▁errors 20364
▁boost 20360
▁arising 20359
aro 20357
▁colours 20355
▁occurs 20354
▁lie 20353
▁inhabitants 20332
▁stocks 20327
▁wednesday 20321
▁usual 20308
not 20303
▁longitudinal 20298
▁league 20297
▁afraid 20294
▁vac 20292
▁liberty 20291
teenth 20290
cat 20289
▁(22) 22157
▁obviously 20284
▁preparatory 20276
kers 20274
▁accused 20270
▁organ 20264
met 23949
bit 20254
▁combating 20253
▁bonus 20245
▁capacities 20241
▁disco 23008
é 356743
▁immun 20231
▁demonstrate 20230
burg 20224
▁expensive 20224
▁appreciate 20221
▁spec 20199
▁plays 20197
▁barriers 20195
▁2000, 20191
▁separated 20175
▁sn 20174
lin 20611
▁flag 20162
clear 20161
▁sight 20161
▁football 20161
▁($ 20153
▁merely 20143
▁encourages 20141
▁gradually 20138
▁websites 20135
▁obstacles 20135
communications 20130
▁dish 20129
which 20115
▁thoughts 20110
▁municipal 20109
▁begins 20108
▁texts 20091
ama 22012
▁lever 20083
▁vary 20080
▁pakistan 20078
▁assessed 20077
▁gospel 20074
▁disability 20060
▁arrive 20053
▁impacts 20052
▁naturally 20046
▁territorial 20036
▁surviv 20033
▁mad 20030
▁thirty 20024
▁conformity 20022
▁driven 20019
ert 53138
▁undertake 20015
▁producer 19998
iii 19985
being 19978
▁revision 19977
▁centers 19976
▁extraordinary 19959
hn 23965
▁safeguard 19955
▁equally 19954
76 21480
▁fu 43931
mann 22540
case 19934
▁everybody 19931
ster 19930
▁maps 19928
▁proved 19927
▁pray 19924
izes 19921
▁arch 19918
▁jer 19918
▁transit 19907
▁hu 19907
▁zealand 19898
▁ownership 19886
▁cum 19884
▁ig 19882
asi 24062
▁lebanon 19880
▁alive 19878
▁squirt 19875
▁ple 19873
▁internationally 19872
▁17, 19865
▁blonde 19860
▁urged 19848
▁assessments 19838
▁loading 19835
▁trained 19834
sk 19829
▁instruction 19813
▁tar 21225
▁possibly 19796
▁peru 19796
▁directors 19796
39 23507
▁indonesia 19790
▁gener 30287
▁pursue 19787
▁proud 19781
▁jack 19776
▁devo 19773
tro 28156
▁scar 19762
▁hungary 19761
▁authors 19745
▁tip 19745
▁inclusive 19733
▁portions 19722
▁affecting 19716
▁semi 19710
▁197 19709
pu 25655
▁minorities 19684
▁unions 19681
uts 19673
▁complaint 19673
▁alliance 19670
▁preparations 19669
▁migrants 19666
cf 19665
▁references 19663
▁passenger 19655
ond 24492
zer 19648
▁ind 27302
▁serves 19639
▁layers 19639
▁ly 19637
▁additionally 19628
▁00 21878
▁(13) 21826
▁initiated 19617
▁prisoners 19614
▁performing 19610
▁behavior 19609
▁amp 19609
▁comprise 19601
▁compact 19601
▁stopped 19597
▁adaptation 19595
▁turns 19595
▁reaching 19593
▁organs 19590
ito 98537
▁organised 19581
cil 19581
▁(18) 21663
▁grass 19568
▁attractive 19561
log 19557
▁creates 19547
▁reservations 19546
▁(201 19542
▁washington 19538
yn 19523
▁partial 19520
aving 19517
▁knowing 19516
▁escape 19515
urt 19515
▁concert 19506
▁ceramic 19499
▁thick 19484
▁ports 19482
shaped 19473
uss 37777
▁california 19468
sized 19465
▁precise 19461
▁194 19458
tism 19457
▁voting 19450
▁licence 19449
▁fre 25432
▁reward 19448
▁brunette 19446
▁intra 19444
▁flo 19441
▁returns 19435
▁pregnancy 19435
-0 19426
▁lands 19419
▁liber 20488
▁sus 343553
▁(9) 21523
▁dignity 19396
▁mining 19395
▁stronger 19390
▁centuries 19389
▁dependent 19387
▁electrode 19383
▁cab 20046
▁kr 19376
▁strike 19372
att 24472
') 20126
▁gi 24555
▁prosecutor 19346
▁gran 122780
▁mounting 19333
▁authentic 19328
▁falls 19323
▁florence 19322
▁saving 19317
▁unknown 19312
aten 38100
▁artistic 19306
▁satisfied 19305
▁vacuum 19304
▁advis 19302
type 19295
▁residential 19294
ala 26306
▁honey 19288
chi 55768
▁conce 19270
▁freedoms 19270
▁liver 19264
cho 22728
▁deemed 19258
▁cancel 19237
▁climb 19237
vent 19234
▁fucking 19231
▁focusing 19230
▁addresses 19230
ula 28842
▁legitimate 19226
conf 19224
▁deutsch 39001
cd 19729
arities 19213
▁trials 19204
▁accidents 19202
▁legs 19175
▁feelings 19175
▁alarm 19175
▁transitional 19172
86 21169
▁exclusively 19166
▁compet 19160
▁row 19160
▁seats 19159
▁grade 19152
▁closure 19149
▁tender 19148
▁deployment 19148
▁intense 19144
▁deeply 19140
▁22. 20346
ening 19129
▁competence 19126
ob 26794
▁mount 19118
bra 29051
mas 25873
▁routes 19093
▁introducing 19090
mine 19086
ido 93564
▁lim 19084
▁olive 19063
fication 19062
▁watches 19060
▁till 19058
▁(30) 20611
▁por 1169019
▁ment 19045
gers 19044
▁detect 19041
dong 19040
▁beijing 19036
▁mel 19021
▁definitely 19021
▁medicinal 19015
▁partially 19014
▁presidential 19009
▁bare 19004
▁bab 19002
border 19000
▁ul 18999
screen 18990
▁describe 18987
ography 18987
▁excessive 18981
▁happiness 18978
▁lights 18973
▁kno 18962
▁porn 18962
ffs 18956
▁tablets 18954
▁james 18941
▁meal 18940
▁pas 486687
▁(9 18939
▁pig 18936
▁roads 18935
▁filling 18924
▁hel 18921
field 18914
▁precisely 18908
▁acceptance 18905
.10 18902
well 18901
power 18891
▁foster 18888
▁classified 18888
▁forever 18887
hips 18883
▁steering 18881
▁57 18880
▁invitation 18875
▁blocks 18875
lu 23023
▁edit 18860
▁filed 18860
▁speaker 18858
ura 48679
▁vietnam 18846
▁grown 18843
▁taxi 18842
▁weekend 18841
▁hor 18835
▁illicit 18831
.' 18831
▁directory 18825
▁tariff 18814
▁certified 18810
/200 18808
▁copyright 18805
78 20435
ix 18801
▁organis 18801
▁permitted 18799
▁harmful 18795
▁calculation 18794
▁converter 18783
▁lunch 18780
▁seminar 18778
ously 18778
▁nutrition 18776
▁paying 18752
▁density 18752
▁grants 18750
ads 18747
▁familiar 18730
▁restore 18728
▁gathered 18727
▁basket 18727
ued 18727
▁transformation 18725
▁tobacco 18723
▁fer 49280
▁06 18717
▁forty 18715
▁moses 18706
▁tuesday 18705
har 18704
▁towns 18700
▁fra 68028
▁equity 18694
▁shut 18692
▁profession 18687
▁lowest 18686
▁computers 18683
▁inher 18681
▁2- 18680
▁technique 30198
▁circle 18670
cp 18666
▁similarly 18663
▁holds 18655
▁deleted 18655
▁queen 18645
▁rub 18642
▁tight 18641
▁adjusted 18638
▁citizen 18617
▁default 18607
▁employer 18606
▁artificial 18598
4). 18589
▁detected 18588
▁disciples 18585
▁overseas 18580
european 18578
▁facial 18569
▁52 18568
▁integral 18567
▁ride 18563
▁withdrawal 18557
▁exam 18554
olog 18552
▁characteristic 18552
gar 26397
▁lens 18545
▁ministerial 18537
ortion 18531
▁chairperson 18530
alizing 18529
▁versions 18528
▁outlook 18528
▁funded 18524
▁whenever 18524
▁educ 18515
ected 18514
▁sounds 18513
▁gmb 19019
2), 18504
▁gentlemen 18503
▁23. 19341
▁guinea 18498
▁surprise 18494
▁reconciliation 18488
%) 21907
tt 19430
▁owing 18476
88 19825
▁productive 18465
▁subsidiary 18453
▁copper 18444
▁offences 18443
ams 18442
▁morocco 18441
ros 33398
▁exit 18435
▁invite 18430
▁belonging 18427
▁fuck 18426
ression 18426
▁tells 18425
▁wider 18424
▁esc 23188
▁academy 18415
hal 20837
▁obvious 18405
▁spacious 18401
▁initially 18398
▁logistics 18394
▁bosnia 18393
▁collabor 18391
▁tension 18390
orous 18389
han 18381
▁permission 18376
▁securities 18360
▁commerce 28546
hl 26361
ative 18355
▁catalyst 18354
▁dealt 18350
▁kar 24286
▁organize 18346
▁originally 18346
▁concepts 18343
▁maria 24939
▁bell 18335
▁honourable 18335
▁diverse 36477
▁glory 18317
▁dec 18484
▁lists 18312
▁dollar 18311
▁sciences 18306
▁brands 18303
▁regarded 18300
▁accommodations 18296
▁rem 18296
▁pink 18293
▁51 18287
▁entrepreneurs 18278
▁sixty 18273
▁propose 20479
▁satan 18269
bic 18265
▁native 18264
▁generator 18261
▁tape 18257
▁frank 18254
▁colleagues 18252
▁2010. 18243
▁emission 18237
▁quantities 18233
▁hardware 18219
▁usage 18218
▁aviation 18212
▁unctad 18211
▁thir 18204
▁inn 18908
▁bon 45329
▁pers 22510
▁troops 18194
▁4: 18190
▁households 18189
mic 18189
▁bulgaria 18188
▁awa 18184
▁victory 18181
▁truck 18176
enti 83424
▁belief 18166
ulation 18163
▁neck 18162
▁jointly 18160
▁societies 18155
▁observation 18153
▁affordable 18151
▁remo 18151
ots 18149
▁phenomenon 18148
▁2001, 18148
▁convinced 18144
▁́ 30722
friendly 18143
▁michael 18140
▁differ 18139
▁directions 18126
they 18125
▁opposed 18124
▁une 1308055
▁microsoft 18123
▁visa 18121
▁investigate 18120
▁detecting 18119
▁trigger 18117
▁split 18113
▁secured 18105
▁explanation 18100
▁oversight 18089
▁villages 18073
▁oxide 18066
▁floors 18064
bly 18059
▁21, 18051
▁vine 18044
▁sole 18041
▁bat 18041
▁diagnosis 18040
▁protest 18036
star 18036
▁spare 18032
▁butter 18027
▁rid 18018
▁kosovo 18008
▁massive 18008
▁interaction 18003
▁weigh 18002
▁donors 17997
▁coach 17996
lis 17990
lement 38028
article 55988
▁sizes 17982
pm 17981
▁demo 17972
▁helpful 17971
], 17957
▁delete 17953
▁deaths 17952
▁continuously 17951
▁conclude 17951
▁conducting 17949
▁sheets 17948
▁airlines 17944
▁haiti 17941
▁19, 17935
ught 17934
▁tel 44985
▁dissemination 17921
▁speakers 17917
▁ontario 17913
bon 17912
▁reflects 17905
▁sar 19536
▁urges 17897
▁finds 17891
▁brake 17886
ji 17885
▁excluded 17884
▁buying 17884
▁ages 17882
▁soviet 17881
fts 17878
▁crown 17877
▁viewed 17870
▁enemy 17869
pal 18644
ull 17858
lia 20444
▁capabilities 17852
▁contributing 17846
▁promoted 17845
▁dial 17843
cia 59436
▁decides 17833
ades 17827
▁diplomatic 17820
▁precious 17820
▁camps 17817
roll 17815
tations 17811
▁seeds 17809
▁temperatures 17804
▁bes 32290
▁cla 17792
▁partly 17784
▁switching 17784
tur 17779
.1. 17778
▁bone 17762
▁dogs 17758
▁solo 229890
▁sti 17752
lines 17752
▁freely 17749
▁dating 17748
▁jump 17744
unk 17737
ification 17736
▁reserved 17732
▁chart 17732
▁1- 17724
▁butt 17723
liz 17720
ich 48137
▁ltd 17719
▁receives 17711
▁systematic 17707
▁steam 17700
▁logis 17699
▁22, 17696
mun 17691
▁glad 17688
eless 17687
market 17686
▁estimate 17666
ases 17658
▁3- 17650
▁nationality 17650
▁poli 35905
▁195 17637
▁2014, 17632
▁happening 17630
oms 17629
▁evaluate 17629
▁random 17628
▁pop 17628
▁thailand 17626
fl 29001
▁leaf 17622
▁controvers 17622
▁newspaper 17622
hu 17619
gy 17617
▁sha 17616
▁noting 17616
▁broadcasting 17615
▁fitted 17615
▁adventure 17608
▁prosec 17607
▁organizational 17605
▁java 17601
▁enormous 17601
▁reactions 17595
ety 17595
▁virgin 17589
▁05 17586
▁shock 17584
▁1.1 17583
▁authorisation 17571
emp 17566
▁strict 17565
▁notified 17562
▁homemade 17552
▁extends 17545
▁exceeding 17538
▁tattoo 17532
hood 17527
▁50% 17520
bro 17518
-200 17511
!" 17508
sec 17508
▁unhcr 17503
▁jung 17502
▁malta 17501
▁magic 17491
▁plates 17488
▁dual 17484
when 17475
amo 62570
▁defining 17469
▁hydraulic 17468
▁formulation 17463
▁statute 17458
▁mortality 17451
▁revel 17451
▁laying 17448
▁necessarily 17445
▁checks 17444
▁1980 17435
87 19633
▁54 17429
▁hoc 17425
▁$1 17424
cked 17422
▁aluminium 17411
▁watching 17401
(3) 17397
tify 17390
▁preferred 17387
cles 17387
eng 20022
-19 17377
▁subjected 17368
sive 17367
▁inquiry 17365
▁receipt 17365
▁fed 17351
▁lesbian 17348
▁infected 17347
▁unlike 17344
▁experiment 17339
▁finger 17338
▁tons 17326
cap 17324
▁sealing 17324
▁constitutes 17323
▁ambassador 17323
▁jean 17693
▁villas 17313
ately 17312
▁linear 17307
tern 37310
▁courage 17303
▁sli 17298
pers 17290
▁orange 17284
▁(15) 19332
▁joseph 17282
vor 34190
▁papers 17267
▁donor 17255
▁enjoyed 17250
▁reconstruction 17248
▁pic 17245
▁beaches 17239
▁coupling 17236
▁wash 17232
▁dan 21049
▁semiconductor 17224
▁devoted 17220
▁genetic 17220
pass 17217
ony 17216
▁wines 17213
itis 17211
▁separately 17211
▁suddenly 17208
ola 27103
▁(20 17205
▁bond 17204
▁58 17196
▁adapt 17191
▁drama 17184
▁dishes 17169
ida 74831
▁adhesive 17137
▁reserves 17134
▁campaigns 17127
▁roles 17126
▁anywhere 17125
▁sovereignty 17124
▁shin 17108
▁2009. 17106
illed 17097
▁disorders 17090
under 17086
aria 68011
▁pp 17082
ore 29160
▁survival 17077
pid 17070
hop 17067
▁healthcare 17065
▁wake 17062
▁generations 17060
▁gal 24117
▁suggestions 17050
▁gained 17048
▁afford 17043
▁dong 17040
▁inserted 17038
▁notify 17035
▁sat 17034
▁techn 17033
▁centr 17031
quer 23318
▁accomplish 17028
ati 92425
▁civilians 17023
▁arise 17022
89 18196
▁usb 17008
▁wil 17007
▁10% 16996
▁fixing 16986
▁widespread 16985
just 16983
▁opens 16981
win 16975
▁forecast 16960
last 16955
▁mill 16953
▁photograph 16950
▁signature 16948
zes 16944
illing 16941
▁earn 16935
▁hero 16935
ett 23665
▁bak 16928
▁string 16922
▁complement 16920
▁pets 16909
▁restricted 16906
▁worst 16891
ressed 16882
▁harmony 16879
▁10: 16874
emia 16873
leg 21273
▁connector 16869
▁repeated 16868
▁manufactured 16863
ux 48966
icking 16844
zy 16840
cker 16811
▁nationals 16811
▁hal 19530
▁achievements 16804
▁wise 16804
▁cit 17581
▁cultures 16801
ella 22728
ris 29858
▁therein 16795
anna 16794
▁flesh 16790
▁constructed 16783
▁resurre 16782
▁seller 16782
▁trips 16777
▁hyper 16775
▁answered 16774
pher 16771
dom 16767
▁jan 16765
▁priests 16760
▁25. 18372
▁eternal 16759
▁portal 16758
▁marks 16756
▁fruits 16753
hor 16752
don 16737
▁2008. 16735
93 17382
▁termin 22206
▁enlargement 16726
▁hospitals 16726
▁slide 16720
/6 16719
▁est 1085051
▁mercy 16713
▁branches 16701
ender 46294
▁damaged 16698
▁ped 16689
nc 16683
▁acids 16680
▁studying 16672
▁intensi 16669
-7 16668
▁wars 16658
▁preva 16655
▁simultaneously 16650
▁shi 16646
á 109427
▁kiss 16644
any 16644
▁1000 19611
▁everywhere 16642
▁prompt 16633
rid 16633
▁24. 18739
read 16627
▁gather 16622
▁journalists 16622
▁methodology 16612
methyl 16603
ctions 16588
▁broadcast 16587
▁adjust 16586
▁refused 16582
▁ensures 16581
▁cs 16574
▁extract 16572
▁roma 36507
▁vintage 16556
▁stood 16555
▁gifts 16549
▁promised 16546
▁panels 16545
▁inflation 16545
▁wound 16544
▁orientation 16539
▁provinces 16535
▁copies 16533
▁66 16529
▁tail 16529
▁likewise 16521
aled 16519
▁observer 16518
▁indication 16508
lam 16508
▁calm 16503
▁atoms 16503
▁transmit 16502
▁senator 16501
▁mandatory 16501
▁personality 16500
▁assume 16499
▁1999, 16498
▁everyday 16498
▁tac 16493
▁53 16492
66 20908
▁suggests 16478
▁madam 16469
▁occupational 16469
▁2012. 16465
3). 16464
rated 16462
▁designer 16460
alls 16453
una 31100
▁polish 16446
▁taxation 16432
cin 19916
specific 16427
▁racism 16425
▁invest 16424
▁prof 19791
▁interactive 16421
▁plain 16416
▁philosophy 16413
▁cand 16412
▁listening 16411
▁themes 16409
▁divid 16406
▁alloy 16406
400 16395
▁800 20166
▁modules 16388
▁supplementary 16384
▁lasting 16383
part 16382
▁exhaust 16371
▁telling 16366
▁paint 16365
▁expanding 16358
▁mali 16351
▁ceiling 16349
▁weakness 16346
▁subsidies 16345
▁2011. 16339
▁casting 16339
▁amsterdam 16335
▁quo 16333
arm 16330
▁95 17147
utes 16323
eg 42915
▁textile 16319
▁amino 16315
ny 16312
92 17232
▁coastal 16305
▁26. 17491
▁amend 16298
ider 16298
▁airports 16296
▁birthday 16292
▁begun 16291
▁twelve 16290
05 16289
▁lev 16289
▁reli 16289
eper 16277
▁disasters 16276
▁combustion 16274
▁27. 17346
▁(12 16263
▁meets 16263
▁removing 16260
▁elastic 16259
▁gardens 16257
▁lin 16252
▁treating 16250
makers 16249
▁specialist 16247
▁mineral 16247
▁prophet 16246
▁designs 16233
▁elsewhere 16231
▁immune 16229
▁insec 16221
▁coordinator 16220
▁emotional 16195
▁recogn 16186
▁ceo 16185
▁feels 16183
olo 50006
▁biodiversity 16173
▁exciting 16160
life 16159
oss 22206
▁mathema 16150
▁italiano 35244
▁treas 16146
▁sheep 16141
cnc 16140
▁aren 16138
▁(24) 17549
▁incl 16122
▁2007. 16116
umption 16116
1- 16366
▁singapore 16114
saw 16112
▁renewed 16111
▁destroy 16110
.4 16106
▁decreased 16100
▁independently 16100
▁georgia 16098
▁possess 16097
▁radical 16096
▁defe 16092
illa 29552
▁wick 16082
▁commit 16078
asts 16077
▁ol 16076
▁locking 16072
▁creator 16070
bor 18295
▁alter 25285
▁underlying 16060
▁5: 16057
cular 16056
▁bathrooms 16056
tile 16054
▁observe 16051
▁confirmation 16050
▁paradise 16049
▁prohibition 16048
▁prohibited 16039
▁infections 16037
▁reproductive 16036
▁fort 25997
▁farming 16034
▁sofa 16034
▁eggs 16033
▁pending 16030
▁granting 16030
▁polar 16029
▁consultative 16028
▁enabled 16024
▁64 16023
bel 24543
▁cour 41691
▁adap 16017
▁budgets 16016
▁prejudice 16012
▁jordan 16012
iner 32027
▁capit 16004
▁1991 16003
dic 16000
▁dismiss 15991
▁purchased 15987
▁spo 15987
hour 15979
▁radi 15977
▁28. 17569
▁symbols 15973
▁drag 15972
len 15972
elf 15971
▁recalling 15969
▁rio 15962
▁imported 15962
▁spin 15959
ancing 15946
▁exercises 15945
▁nobody 15942
▁significance 15939
▁hub 15938
▁ah 15936
▁portuguese 15931
▁preventive 15931
ibility 15924
lect 15923
▁terror 15921
▁scholars 15907
gro 15906
osis 15905
▁packages 15898
pri 18314
▁produces 15893
orts 15874
▁chocolate 15868
▁legally 15866
▁feeding 15864
▁thematic 15855
▁08 15852
▁grey 15843
tia 15841
▁ratification 15836
▁combine 15829
▁bird 15828
▁spoken 15827
▁bun 15826
ost 18273
▁exchanges 15818
▁ultimately 15816
▁grateful 15814
▁icon 15812
▁coordinate 15809
▁electronics 15806
lock 15804
▁£ 15803
cus 15802
▁portfolio 15798
▁flying 15797
▁bid 15792
▁nights 15792
▁1998, 15789
▁threesome 15787
▁teeth 15787
55 19261
▁29. 17097
▁leisure 15774
▁wto 15773
▁signing 15772
▁exclusion 15769
▁placing 15765
▁secondly 15762
▁ultimate 15761
▁rede 15761
▁solvent 15754
▁synthetic 15753
▁30. 18836
hat 15745
▁consum 15738
▁59 15731
▁tourists 15731
▁transmitting 15724
party 15723
ctor 15722
▁yugoslavia 15717
▁sustained 15712
▁slovenia 15711
▁mys 15700
yes 15700
▁emp 24347
▁indicating 15694
▁aside 15693
rib 15691
▁crazy 15688
94 16145
▁observers 15686
▁smoke 15684
▁logic 15672
▁premises 15672
▁owned 15669
itt 15667
▁requiring 15663
▁winning 15662
▁transl 15658
▁grave 24983
▁bis 331978
▁abund 15653
▁progressive 15651
▁offence 15646
300 15645
▁syria 15642
▁argument 15641
▁autonomous 15639
▁insufficient 15639
▁obtaining 15636
▁array 15635
▁sodium 15632
matic 15631
▁angel 15630
▁cheese 15630
▁disputes 15628
▁furnished 15627
▁personally 15622
▁mista 15607
air 27560
▁maxim 15606
xy 15605
ckets 15604
▁1.5 15603
▁positioned 15601
▁martin 15600
▁suspended 15599
▁gw 15593
▁2013. 15592
▁multip 15585
▁whilst 15579
▁gri 15578
▁français 32645
law 15561
▁selecting 15556
tech 15554
▁enthusias 15552
▁moves 15550
▁salvation 15546
▁reflection 15545
▁repeat 15544
▁mask 15544
▁municipality 15543
▁persecu 15543
▁kn 15539
▁chf 15538
teen 15536
▁lab 15532
▁succeed 15532
▁frequent 15523
▁ens 15519
bre 29947
▁burning 15517
▁violent 15515
ordinal 15515
▁fitness 15514
▁intends 15514
▁tum 15511
▁naples 15508
poli 16817
▁fleet 15505
▁sins 15501
▁cn 15499
▁ara 15497
▁psychological 15487
▁activ 15482
▁montreal 15480
▁busy 15480
proliferation 15477
▁atlantic 15477
▁shaped 15472
▁hide 15470
▁specify 15468
▁auditors 15467
▁2005. 15466
anted 15464
▁crimin 15462
▁fi 19772
3- 16191
▁(18 15446
▁2006. 15446
urity 15445
▁translate 15444
▁beat 15440
▁cute 15439
▁aluminum 15432
▁intensity 15423
▁engines 15416
▁transnational 15414
▁restoration 15408
▁limitations 15406
▁compromise 15405
▁fault 15404
mate 15403
▁syn 15402
▁refund 15397
▁balls 15396
▁babe 15395
▁cha 15393
▁financed 15392
▁swallow 15384
▁mp 15384
▁notably 15378
▁favor 36600
▁sisters 15372
▁volunteers 15370
▁belongs 15366
▁gla 15364
▁blade 15363
▁repa 15355
▁recognised 15354
▁movies 15353
▁pot 15344
▁77 15341
▁authorised 15340
oph 15340
wear 15335
▁rom 18798
▁continent 15330
▁certificates 15327
▁magnet 15326
anny 15323
▁cooperative 15320
▁impress 15312
clo 15310
esi 20334
port 18857
▁screening 15299
▁lawyer 15297
▁bud 15292
▁lod 15285
^ 28350
▁conversation 15285
▁surveys 15284
▁ion 15283
▁exec 15277
tate 19101
▁opp 15276
▁chi 57369
rev 15264
▁proven 15251
weight 15250
▁racing 15237
▁sab 23215
▁dvd 15628
section 15227
▁attempts 15225
▁highlights 15222
▁appeals 15215
sch 94143
▁unep 15205
▁holes 15205
▁composite 15204
▁adopting 15203
▁inventory 15195
▁tonnes 15194
▁decor 15185
▁condem 15185
sr 15183
▁considerations 15181
▁serbia 15176
war 15173
▁cuisine 15172
▁stimul 15169
▁george 15168
▁identical 15167
kg 15661
ried 15161
▁grew 15160
▁metro 15155
▁61 15153
▁tuscan 15149
▁realization 15143
▁react 15141
▁monte 22080
▁molecular 15136
▁supervisory 15135
▁choices 15133
▁migrant 15131
nt 15124
▁qualifications 15109
cell 15108
▁scre 15105
iter 29000
▁funny 15088
▁bacteria 15084
view 15083
▁pit 15083
ira 23836
▁oven 15074
▁py 15061
▁individually 15058
▁sacred 15054
▁voted 15051
▁heav 15049
▁pivot 15047
▁preserve 15041
▁hypo 15037
▁referring 15034
flow 15028
emb 16447
▁allowance 15024
▁corn 15022
▁harvest 15022
nes 31401
such 15020
anged 15019
▁presid 15015
▁seeks 15015
▁stick 15011
▁losing 15010
▁shoulder 15010
▁honest 15007
▁consequence 15005
▁commun 23941
itor 14999
▁(15 14993
▁palestine 14993
▁sierra 14990
ills 14983
united 14981
▁impressive 14978
ading 14975
▁allegations 14972
▁revolutionary 14971
91 15789
ede 20839
▁consulting 14961
▁graph 14958
py 14957
bus 17784
tery 14948
▁celebrate 14944
▁kne 14943
enn 19596
▁pros 14938
▁sleeve 14932
▁circulation 14931
▁moments 14926
ilt 14925
find 14925
▁retirement 14923
▁hos 14920
▁theatre 14918
▁filters 14910
▁isolated 14905
▁fax 14902
dge 14902
▁blank 14900
▁gh 14898
▁alert 14898
▁relevance 14895
▁weekly 14894
utors 14892
▁facilitating 14887
▁treatments 14882
▁psych 14878
▁rescue 14872
▁killing 14871
▁wages 14869
▁wheels 14865
▁fantastic 14864
▁amongst 14864
-20 14856
▁viol 20052
▁typically 14847
▁unusual 14844
gas 37565
▁adjustable 14837
▁slowly 14829
▁seventh 14825
yan 14817
open 14813
▁discipline 14809
▁administered 14805
▁invo 14800
produc 14798
▁matrix 14796
▁acute 14795
▁correctly 14794
▁2015, 14780
▁poker 14773
▁originating 14773
▁accuracy 14764
▁aff 30757
bis 14746
▁invites 14738
▁mothers 14725
▁dissemin 14721
▁minim 14719
▁(1), 14714
▁civili 14714
pin 14711
▁shortly 14709
▁tablet 14705
▁traditions 14704
▁foam 14701
kin 14689
▁compulsory 14688
▁cluster 14688
df 14686
▁printer 14683
▁depression 14683
▁seminars 14681
▁archive 14672
▁conjunction 14672
▁boss 14672
▁bishop 14671
▁acknowled 14668
▁doub 14663
▁cry 14661
▁empire 14658
hen 32222
onia 14658
▁flu 14654
▁younger 14650
▁gel 32642
▁consolidated 14635
▁prospects 14635
▁satisfy 14632
▁indoor 14632
▁cabinet 14632
▁justified 14630
▁daniel 14624
▁offset 14619
▁12: 14618
▁circular 14612
▁gaza 14609
▁español 32270
▁relate 14608
side 14605
▁workplace 14605
▁collecting 14599
▁ak 30209
▁acquire 14598
▁07 14597
▁reveal 14597
▁accord 35215
▁precision 14589
appro 14585
alm 14581
▁blessed 14581
▁endorsed 14579
▁fulfill 14579
▁abs 32990
erg 14577
▁protocols 14574
▁establishments 14574
▁impression 14572
▁officially 14566
▁philippines 14566
▁describes 14563
73 16360
▁differenti 14560
▁proposes 14555
▁ease 14554
▁assign 14552
▁keys 14547
▁listing 14544
▁integrate 14544
▁cultiv 14543
▁francis 14540
zo 32345
▁somalia 14530
ump 14529
▁tracking 14517
▁recognizing 14517
▁2020 14517
▁fig 14510
▁commonly 14508
▁puzzle 14504
▁piston 14501
▁unesco 14498
operation 14494
▁ci 183318
about 14490
▁deadline 14484
▁borrow 14479
load 14475
elle 127903
▁expec 14473
▁consciousness 14473
second 14471
▁gains 14470
▁charming 14466
▁contest 14461
▁interventions 14459
▁rwanda 14455
▁coordinating 14454
▁0.1 14453
wan 14448
▁lar 14446
por 45353
uv 25346
▁salary 14441
▁opera 20273
▁outlined 14426
▁alex 14422
▁campsite 14421
▁herzegovina 14420
▁crew 14420
▁incentives 14418
▁barrier 14416
▁citizenship 14413
▁fulfilled 14410
▁lum 14408
▁pul 14408
▁microwave 14408
▁concentrated 14405
▁receiver 14405
month 14401
eur 20632
gage 14386
eto 16459
▁prince 14380
▁unre 14370
▁skill 14370
▁disclosure 14366
south 14363
▁occasions 14362
▁searching 14359
▁bigger 14359
▁cancellation 14349
▁norms 14346
▁admission 14345
▁hoped 14342
▁solely 14341
mission 14341
▁rolling 14340
▁chest 14337
▁dreams 14335
▁museums 14334
▁vitamin 14333
▁admitted 14330
▁profits 14329
▁concluding 14329
▁swedish 14327
▁aqueous 14325
ela 25381
▁? 74729
.: 17417
▁cease 14316
▁180 14305
thro 14304
▁engaging 14304
▁drinks 14303
▁1,000 14292
zi 42790
▁employ 14283
▁5- 14278
▁eec 14275
▁hello 14270
▁reliability 14269
sm 14265
▁cargo 18058
▁expenditures 14253
wed 14252
▁settlements 14251
▁ultra 14249
▁affects 14249
works 14246
▁sensors 14242
ived 14240
▁trail 14239
▁displacement 14234
inal 14234
▁sem 24477
▁24, 14221
▁bow 14209
TM 14207
▁annually 14201
state 14195
▁beer 14194
▁delicious 14193
esses 14191
▁encounter 14187
▁deficit 14187
▁adam 14186
▁vaccine 14185
▁indirect 14183
▁adjustments 14180
▁cinema 14179
▁20% 14178
▁incidents 14176
▁correction 14174
▁affili 14172
▁sovereign 14165
▁2015. 14165
cra 14161
icians 14161
▁198 14153
gan 35632
iveness 14151
▁containers 14150
▁guides 14150
▁measurements 14150
▁diver 14147
▁arbitration 14146
▁sacrifice 14144
▁glo 14141
ques 52041
▁regulated 14124
▁assurance 14123
tte 18398
looking 14120
▁sufficiently 14118
▁ict 14113
▁surprised 14110
▁childhood 14108
▁interracial 14102
total 14099
fu 14093
▁coin 14082
▁(16 14072
▁wearing 14070
▁quote 14069
▁retain 14066
▁nigeria 14065
▁exci 14065
▁basically 14064
rs 14064
ands 14063
▁diamond 14063
▁neigh 14061
▁pace 20497
▁autumn 14059
▁drafting 14056
▁grain 14051
▁farms 14044
president 14044
▁disclosed 14042
iving 14041
▁var 14227
tedly 14029
▁emo 14027
fted 14025
rical 14013
▁travelling 14006
west 14006
fort 14005
▁writer 14002
mented 14001
mc 14000
▁seas 13998
▁processor 13996
▁underground 13995
▁2.1 13995
▁resistant 13993
▁nose 13988
▁25, 13987
▁surroundings 13987
▁4- 13985
▁respected 13984
gal 14492
lt 68841
duc 13971
ements 28692
known 13969
’. 13965
▁unders 13960
▁hate 13958
▁drew 13958
▁trains 13955
▁custody 13949
▁bol 17255
gn 23275
▁yang 13942
ights 13940
▁smo 13934
▁environments 13933
▁enrich 13933
▁destinations 13932
▁lac 13928
▁somewhat 13925
▁constraints 13921
▁intensive 13917
▁resolved 13906
▁2004. 13904
▁meals 13900
other 13897
ience 13897
▁reflecting 13892
▁romantic 13891
▁strange 13884
▁strictly 13882
▁wholesale 13881
▁neg 13880
▁saudi 13877
▁plenty 13876
▁optimal 13875
▁1997, 13862
pse 13860
▁mos 15918
▁prop 18602
ov 13851
▁mines 13848
▁μ 15101
▁recalled 13839
ghten 13833
▁62 13832
▁unemployed 13827
▁broader 13827
▁diabetes 13827
▁2014. 13818
▁senate 13811
organ 13811
uro 23260
▁venezuela 13807
▁capture 13807
cos 30181
▁jet 13805
▁lovely 13805
alkyl 14518
▁ka 13800
▁quebec 13797
▁danish 13796
▁thomas 13794
▁applicants 13785
▁(21) 15011
▁exemption 13778
▁♪ 13777
mental 13776
▁hopes 13774
▁mam 13774
▁compositions 13773
▁keeps 13770
▁hook 13770
tains 13769
alk 13768
▁ending 13767
ml 14041
▁urge 13765
▁(26) 15019
oriented 13754
▁converted 13753
▁spectrum 13752
third 13752
▁platforms 13747
▁parks 13746
▁incurred 13745
▁polyester 13745
▁nu 24721
sw 13741
▁translated 13741
ulate 13740
ped 13739
▁04 13737
night 13735
▁taiwan 13735
▁adds 13732
▁econom 13730
▁atta 13728
▁ing 13725
▁rely 13722
imp 37673
reg 20278
▁gaps 13718
▁font 29952
cut 13716
▁af 17348
urine 13714
▁tracks 13714
▁greenhouse 13710
▁excellence 13709
▁ward 13707
▁recon 13706
▁(18+) 14092
▁31. 17541
▁recognizes 13692
▁glasses 13692
▁embar 13688
▁returning 13687
rics 13684
▁impose 13676
▁rigid 13674
▁guiding 13669
67 18734
national 13664
▁consist 13663
may 13653
▁sees 13646
▁entrusted 13643
/10 13643
▁boards 13642
▁meanwhile 13641
▁petition 13636
▁distinction 13635
▁revers 13635
ette 51231
▁announcement 13633
yer 13813
▁denied 13630
omer 13622
atter 13621
▁23, 13617
▁disturb 13615
▁recall 13612
fore 13611
▁rob 13611
▁toxic 13607
▁190 13606
▁complicated 13603
▁mixing 13601
▁corrup 13583
▁audi 15588
▁flour 13579
bc 13578
tage 22952
8). 13572
▁methyl 13568
mit 24532
▁olympic 13562
umb 13562
american 13561
▁welcoming 13561
▁(" 13557
▁needle 13556
▁guitar 13555
▁2) 16965
lla 13552
▁mt 13551
▁belarus 13548
▁arri 13545
▁kuwait 13545
▁nec 13541
▁remarks 13541
▁considerably 13539
▁dri 13536
▁herself 13528
▁hunger 13526
▁adher 13525
▁ratified 13525
▁reject 13524
▁syndrome 13523
▁internally 13522
▁vegetable 13521
▁functionality 13520
▁venture 13518
▁grid 13512
▁attractions 13510
▁bicycle 13503
cep 13499
tent 13498
site 13497
▁procla 13492
tens 25913
▁crops 13482
▁complementary 13480
▁rated 13474
▁waves 13473
▁resid 13470
enter 13470
▁acknowledged 13470
▁benef 13467
▁coated 13466
▁ram 14348
▁potentially 13463
pc 15654
▁mood 13459
▁nov 18179
▁advancement 13455
▁hosted 13454
▁laundry 13447
▁associate 13446
4), 13445
oth 13443
acc 19373
▁evaluated 13441
▁attract 13441
▁withdraw 13437
82 16195
▁captain 13434
▁robert 13433
▁verify 13430
mb 21112
anda 20934
sex 13420
▁directorate 13418
sen 20680
ht 26295
▁nitrogen 13406
▁hollow 13406
▁negotiation 13405
▁legend 13404
▁shapes 13403
unds 13393
ema 14376
ered 13383
▁mandates 13381
▁comparable 13376
after 13372
bas 26144
▁pressing 13367
72 15424
script 13363
rol 13361
▁decl 13358
▁lug 13358
▁urine 13358
▁130 13410
uns 13356
▁kenya 13355
cla 13355
▁beneficial 13353
600 13350
▁pap 20704
▁mobili 14513
zen 29965
▁ecuador 13331
▁acp 13329
▁restored 13329
▁edges 13327
usion 13321
▁(19 13320
6). 13317
▁tal 70379
atures 13315
/201 13311
▁roots 13307
▁lit 18171
▁threatened 13304
vol 23653
yang 13301
rupt 13299
▁cf 13298
▁lesson 13291
▁cord 13291
▁cathedral 13290
▁publicly 13282
function 13280
▁apparently 13278
▁deser 13277
▁favourable 13275
▁boxes 13274
▁archives 13273
ctive 13272
proof 13269
▁irish 13267
▁heated 13256
▁ven 34516
▁dur 35886
itary 13248
tig 42074
▁moscow 13243
group 13238
▁revenues 13237
▁ecological 13236
▁backup 13236
tained 13231
▁gases 13229
▁allerg 13228
▁tropical 13223
▁govern 13211
▁cau 13209
▁~ 13763
▁bolivia 13203
ien 70720
▁clari 13201
▁casa 123797
▁responded 13196
▁hon 13196
gues 13194
▁prov 13194
▁stones 13192
▁discovery 13182
83 14989
▁hebre 13175
▁2000. 13174
active 13169
food 13168
84 15092
▁focuses 13158
▁refuse 13155
▁wors 13151
▁commissions 13150
▁stat 13148
itable 13146
▁0.5 13144
▁neighborhood 13143
▁meaningful 13143
▁lingerie 13138
▁twin 13134
ram 13133
▁injured 13132
▁coins 13131
▁(17) 14510
▁formats 13129
▁gym 13125
▁embra 13120
▁eradication 13119
▁alternatives 13118
▁110 13118
▁preced 13117
lands 13114
▁exhibitions 13113
▁munich 13113
▁installations 14417
ppers 13110
▁classical 13109
oro 22907
▁wellness 13101
▁pulse 13099
▁overla 13098
▁sleeping 13097
▁membrane 13096
▁constituted 13094
▁silicon 13089
▁suites 13083
▁enemies 13082
▁ombudsman 13082
▁kings 13080
▁paras 13077
▁ts 13076
▁yah 13075
▁chose 18746
▁activated 13070
▁shelter 13070
▁sustain 13070
▁derog 13069
▁punish 13068
▁1) 16564
aking 13061
▁1989 13060
cula 13054
anc 18744
▁socialist 13053
▁demonstration 13046
▁bush 13045
▁30, 13044
▁dll 14401
▁fetish 13041
▁tolerance 13041
▁hardly 13039
▁unw 13038
▁renewal 13037
▁breach 13034
▁matthew 13031
▁operates 13020
▁jun 13020
country 13020
▁incom 13018
-201 13636
ico 108178
fies 13007
▁surprising 13007
▁fewer 13000
▁elabor 12996
▁loop 12994
▁63 12993
▁tennis 12993
▁evaluations 12991
jin 12990
▁quota 12989
▁timing 12988
hs 12982
▁assisted 12981
▁iceland 12981
arily 12980
ground 12979
▁dece 12975
▁chrome 12975
▁performances 12974
▁expresses 12970
▁appendix 12966
▁suspected 12966
▁assessing 12966
▁compli 12963
ban 19944
.199 13102
▁mira 19798
ario 83431
▁specially 12953
▁editor 12946
▁permits 12941
▁subregional 12936
▁crop 12935
▁inadequate 12928
plan 22302
▁relaxing 12925
iring 12922
▁strugg 12917
▁angels 12916
ient 58867
▁bomb 12912
▁concentrate 12912
▁calcium 12910
▁slots 12910
▁apparent 12908
▁ann 18222
▁unfpa 12906
▁72 12904
▁distinct 12904
days 12904
▁profound 12898
▁rotary 12897
ral 12887
▁vend 20524
gre 12883
▁weapon 12880
▁sang 14890
utting 12875
bey 12875
à 148090
▁intelligent 12866
▁ai 232681
▁oils 12860
▁chris 12859
▁globalization 12859
▁constructive 12857
▁intend 12855
▁mistake 12855
▁abraham 12854
▁monitored 12849
▁capability 12849
81 14603
fire 12844
lec 12843
▁hazardous 12841
▁ren 18587
inous 12833
▁hung 12833
▁moderate 12825
▁(11 12824
▁stabili 12823
▁hills 12820
▁2003. 12819
▁stic 12816
uding 12814
▁decorated 12812
▁presenting 12805
▁survive 12805
▁forese 12804
▁necessity 12804
▁ky 12799
▁warranty 12799
▁imprisonment 12797
▁attending 12796
▁mould 12796
▁varied 12795
▁envisaged 12792
ultural 12785
▁az 12863
▁decoration 12783
▁mir 51448
▁ethics 12776
ney 12774
▁lying 12770
▁mur 20450
▁displays 12762
▁egg 12758
ee 12751
▁2002. 12749
▁assumed 12748
▁apost 12745
amb 14710
▁burn 12738
press 12738
▁celebration 12737
▁dialog 12736
▁· 84568
▁remarkable 12734
▁lithuania 12734
▁(32) 13811
▁malaysia 12732
▁mouse 12727
▁mexican 12727
ugg 12725
ians 12724
▁servant 12721
▁6: 12717
loc 12712
til 23750
▁(40) 13648
▁monster 12705
▁sel 18573
▁threaten 12694
▁encry 12694
▁criticism 12692
▁67 12692
therapy 12686
▁trib 12686
í 85471
▁colon 12679
▁ox 12677
▁immigrants 12671
ford 12669
▁specialists 12669
▁peripheral 12668
▁delivering 12668
ket 12668
▁breaking 12666
loy 12664
▁purchasing 12663
▁matt 12663
▁remedy 12662
▁qualities 12657
▁possession 12656
▁securing 12655
▁checked 12654
▁movable 12652
▁complexity 12652
▁americans 12650
▁collections 12648
▁lakes 12648
▁bore 12648
cial 12641
▁execu 12639
▁analyses 12632
▁reputation 12631
▁customized 12627
▁releases 12626
▁bench 12625
▁parameter 12622
tin 16654
▁adjusting 12620
osa 72866
▁phones 12611
▁bonds 12610
▁rab 12609
▁firstly 12608
ule 27626
▁spite 12603
▁configured 12602
rest 12601
▁1970 12598
alling 12594
▁deter 12592
pan 12586
inc 14143
wel 12580
front 12576
▁rank 12574
▁bass 12572
▁frameworks 12569
▁virtually 12568
ection 12565
▁silence 12561
ox 13917
road 12553
▁1996, 12550
▁shooting 12547
▁ration 12544
rap 12544
▁paths 12543
aded 12535
now 12528
▁catal 12527
non 19900
▁habitat 12526
▁clearance 12524
▁700 15691
▁mercury 12522
▁arguments 12521
▁destin 12521
▁recru 12516
▁prohib 12513
ints 12513
vic 12512
▁judiciary 12511
▁fallen 12510
▁folder 12504
▁(13 12499
▁recycling 12491
▁pocket 12487
▁gathering 12487
tit 14812
▁stamp 12481
▁disorder 12476
▁dc 12476
▁particip 12475
▁antenna 12475
▁din 12753
▁firmly 12468
▁fathers 12467
▁communist 12460
vin 14292
▁charging 12447
iel 12444
▁analog 12444
▁overw 12444
▁­ 24689
▁terrible 12443
▁abol 12442
▁robust 12441
▁tongue 12437
▁sri 12435
▁ranging 12434
▁intake 12433
▁conven 22447
▁od 12424
▁beneficiaries 12424
▁enjoyment 12420
▁appropriations 12418
▁damages 12416
▁stresses 12414
79 14097
▁handjob 12413
▁tast 12412
▁portable 12411
▁fraction 12407
▁yield 12405
ym 12401
▁introdu 12399
▁excluding 12399
▁utility 12396
▁ang 13323
▁unex 12394
▁reduces 12386
▁tas 12383
▁bands 12382
▁thereto 12379
▁puts 12378
▁sexu 12378
▁ay 14697
print 12374
china 12373
▁atom 12369
▁pursued 12368
▁› 12486
▁spray 12364
▁scatter 12361
▁bulk 12360
▁jizz 12358
▁lux 12357
▁luck 12353
▁satur 12352
▁attach 12352
click 12342
▁nutri 13655
▁infant 12340
isting 12339
through 12337
▁wort 13533
▁economics 12336
▁lounge 12333
▁faq 12332
▁clause 12332
▁blo 13300
▁sword 12327
world 12327
▁plot 12326
▁jin 12325
▁reader 12322
▁1995, 12317
▁islam 12316
▁focal 12316
▁guatemala 12316
▁confident 12313
▁actu 13585
▁entries 12308
develop 12306
64 15177
▁ministries 12306
▁juice 12304
▁inspiration 12303
▁tall 12303
▁realistic 12299
▁shr 12299
wh 12299
▁crossing 12299
▁toler 12298
▁governmental 12295
▁storing 12290
mos 54597
▁dropped 12287
▁probe 12285
▁evol 12279
tice 12278
venth 12276
▁1994, 12274
▁puerto 17869
etting 12268
▁scan 12262
▁executed 12261
▁leone 12258
▁detector 12257
cel 13224
▁casual 12251
▁mild 12250
▁mono 16191
▁consolidation 12248
▁aqu 13684
▁terra 36304
▁couples 12245
▁obliged 12243
‘ 12241
▁efficiently 12240
▁anger 12240
▁tow 12238
▁commander 12234
ables 57804
san 12232
▁safeguards 12222
▁10- 12214
▁healing 12214
▁chicken 12212
▁joining 12212
▁chairs 12207
elt 31758
▁charles 12202
doc 12432
bunker 12200
tiv 30189
▁environmentally 12191
▁trace 12191
▁inhib 12188
▁cuts 12186
inger 12185
▁fibre 12185
ua 22562
▁pour 1493970
▁incorrect 12178
▁politicians 12173
▁mit 1175803
ules 15065
▁corporations 12170
ordin 12170
▁evident 12169
phy 12168
date 12167
▁rig 12162
3), 12160
vern 12160
▁delayed 12159
▁carriers 12158
▁oecd 12152
▁inlet 12150
▁greet 12150
▁11: 12150
▁vii 12147
š 12146
▁perm 12138
▁doc 14338
▁exhib 12135
▁sap 17815
▁argued 12130
▁prosperity 12127
▁ought 12125
▁31, 12125
▁authorization 12124
-12 12120
▁gambling 12119
▁passes 12119
▁tim 12115
▁lan 12114
▁fairly 12112
▁settled 12108
▁desktop 12102
▁belgian 12099
▁decentr 12099
face 12097
▁2.5 12097
▁fever 12096
fic 22450
▁arbitrary 12092
▁sliding 12088
cop 12080
▁incredible 12077
tious 12076
▁sanitation 12075
rup 12074
▁obs 12069
▁hybrid 12067
▁slovakia 12066
▁reductions 12061
▁darkness 12061
▁catalogue 12058
▁standardi 12056
▁paintings 12055
▁volunteer 12054
▁alongside 12053
▁publishing 12052
▁bases 15306
▁initi 12050
▁(14 12050
▁veterinary 12037
high 12037
▁vector 12036
’, 12033
▁prague 12031
▁compan 12031
ingen 17959
▁summar 12029
child 12028
thy 12027
▁compens 13590
▁dental 12026
▁responding 12022
bec 12019
▁vatican 12017
anced 12016
uld 12016
▁` 12015
▁advoc 12014
▁segments 12013
▁winner 12010
itter 12008
▁minus 12007
▁bb 12007
▁shorta 12007
▁stayed 12007
8% 13182
▁appoint 12003
▁buyer 11993
ras 30506
ager 14753
list 11988
uded 11985
▁conductive 11979
▁texas 11972
▁conform 11965
ack 11963
▁stomach 11962
▁dioxide 11962
▁22:16:19 11961
▁tes 15795
person 11958
▁salvador 11956
ament 11956
▁desert 11955
▁sq 11954
anian 11951
▁isolation 11951
▁definitions 11949
▁wherever 11946
▁drives 11945
▁stret 11944
▁26, 11935
▁compar 20985
▁refrigerator 11934
▁supplements 11934
▁amarillas 12181
▁theater 11930
▁injuries 11929
pol 17956
▁28, 11926
▁cli 11925
▁repeatedly 11925
graph 11924
dle 11924
▁foundations 11923
▁sampling 11922
▁speaks 11920
oper 11919
▁checking 11917
▁chip 11916
▁peninsula 11911
▁diagnos 11911
▁geomet 11911
▁empower 11910
▁cameras 11900
▁mystery 11899
▁convergence 11899
▁algeria 11897
▁promises 11897
▁neighbouring 11892
▁graphics 11890
▁adolescents 11884
▁austrian 11883
800 11877
▁rivers 11875
▁announ 11875
▁garage 11873
▁particle 11872
▁marking 11872
▁medication 11871
▁nozzle 11871
▁satisfactory 11870
▁simp 11866
ception 11864
▁sphere 11862
▁meter 11861
▁breakdown 11859
▁protes 11856
▁profiles 11854
▁boots 11853
orted 11845
▁rica 13759
▁therapeutic 11836
▁interven 11832
▁forestry 11828
▁wished 11820
-9 11820
▁fascin 11818
▁fitting 11817
▁exploration 11816
iah 11815
bili 24912
▁1988 11804
)) 11803
▁adm 11802
▁reintegration 11801
▁negotiating 11789
▁cylindrical 11788
▁requesting 11785
▁minds 11785
▁staying 11784
holder 11783
▁68 11781
resolution 11779
▁tackle 11777
▁emerged 11777
▁practitioners 11768
▁yoga 11764
▁recipient 11762
▁advent 11759
▁simpli 11758
run 11757
▁interpreted 11754
▁wed 11754
▁lubric 11754
▁subscribe 11753
▁liberia 11753
ometer 11752
▁creativity 11752
▁cad 21296
▁guilty 11749
▁rein 15674
▁interrup 11748
5- 11748
excl 11747
▁browse 11746
▁detained 11743
▁900 14935
▁demanding 11742
.’ 11738
▁electron 11737
▁talent 11735
▁derivatives 11728
▁ql 11725
agency 11719
▁summ 11718
▁jig 11718
▁recovered 11717
▁conscience 11712
▁carries 11710
inf 17652
▁dried 11703
▁commem 11703
▁lifestyle 11702
▁utilization 11699
▁volumes 11699
▁09 11699
▁relatives 32595
▁specification 11693
▁louis 11688
▁acceler 11685
▁uph 11680
▁charm 11679
▁fab 11675
▁” 16506
▁shoot 11671
▁transformed 11668
▁canadians 11664
71 13593
trial 11660
▁prem 11657
▁phil 11657
▁suff 11653
▁inputs 11651
▁scri 11650
▁scenes 11649
▁muslim 11641
lex 11640
▁poet 11639
▁advances 11636
ship 11633
▁193 11633
▁(+ 11632
900 11628
diction 11627
commission 11627
▁loves 11627
▁mere 11627
try 11623
▁exch 11623
▁nato 11622
▁decisive 11613
▁2007-11-13 11668
▁giant 11610
▁(30 11604
vid 15504
terrorism 11603
▁testimony 11602
▁combining 11602
▁ranking 11597
▁corresponds 11596
▁pitch 11592
▁validity 11592
▁potato 11590
▁(2), 11586
▁conscious 11584
▁tone 11584
ulous 11582
▁complainant 11581
▁procedural 11579
▁atomic 11578
▁(28) 12436
gl 15428
▁burundi 11575
plas 11573
ref 11570
antly 11568
▁metals 11568
▁reaches 11567
▁analys 11565
▁remedies 11564
7% 12772
▁sd 11555
piece 11555
02 11553
▁clarify 11551
▁rebel 11550
▁coherent 11549
▁countryside 11546
▁congrat 11546
▁retrie 11545
▁prevented 11544
▁refres 11543
▁ethiopia 11542
bin 11541
▁photography 11540
▁sentenced 11539
▁deco 11539
▁edi 11539
edi 15207
▁jihlava 11536
cion 30180
lar 15766
▁actor 11534
▁coil 11534
bur 11530
▁spots 11529
▁nervous 11529
aper 11528
▁clin 11524
▁outbreak 11518
▁delays 11516
▁positioning 11514
ando 262772
cere 11513
▁enco 11509
▁uruguay 11508
▁organizing 11505
▁advised 11503
▁sudden 11497
▁automation 11497
▁myth 11495
▁nap 11495
▁imm 11494
▁reign 11492
▁surgical 11489
▁tough 11481
▁latvia 11478
▁scenario 11478
▁spreading 11477
▁forums 11474
▁arg 11473
▁tub 11471
▁copolymer 11467
▁oak 11467
▁ash 11464
▁bishops 11464
▁2001. 11462
▁spectacular 11461
▁lastly 11460
▁influenced 11460
▁recess 11456
name 11455
▁tubes 11455
▁attachment 11452
▁02 11451
▁abandoned 11449
ole 16790
▁newspapers 11448
(1 11446
▁univers 14707
uf 27614
▁penalties 11444
deli 11443
▁refin 11443
service 11442
▁equitable 11441
▁exemp 11439
▁92 11436
▁groove 11431
member 11429
▁substituted 11425
urse 11418
cket 11417
▁prospect 11416
▁contractual 11413
▁explan 11411
▁nurse 11407
▁featuring 11406
-199 11405
▁lifting 11404
▁unlimited 11404
▁interviews 11400
▁expressing 11399
▁som 20988
ante 199735
▁catalog 11390
only 11390
▁tam 11389
▁lateral 11388
jan 14994
▁slight 11383
▁religions 11381
▁luke 11381
oted 11378
▁hospitality 11376
▁alm 11375
▁03 11373
▁enrol 11373
5,000 11370
▁entr 11368
▁sexy 11366
tv 19193
ste 40878
▁kilometers 11359
▁fatty 11357
▁consistency 11357
▁essence 11356
▁ji 11355
▁creampie 11354
hness 11353
▁diagnostic 11351
‐ 13318
▁arc 11347
link 11345
▁buffer 11342
▁nar 11340
▁preservation 11339
▁persistent 11334
bb 11334
▁typ 14928
▁kick 11333
▁championship 11333
▁ras 23970
▁reinforced 11332
aba 60443
▁vic 11720
▁experimental 11326
smo 11324
pec 11336
▁interpre 11322
▁arabia 11321
▁hairdryer 11321
▁magnificent 11320
▁loud 11320
▁heavily 11319
▁comprised 11316
` 21410
▁analytical 11310
▁chambers 11309
▁empowerment 11309
oll 14106
▁gulf 11300
▁projection 11298
▁smile 11298
aches 11297
▁structured 11294
▁attitudes 11294
lection 11292
▁3.1 11291
▁servers 11283
▁ambitious 11280
▁unido 18364
▁mont 16916
▁interference 11267
▁promotes 11265
▁rus 11264
▁modify 11264
▁packing 11263
▁smartphone 11259
▁correspond 11258
miss 11257
▁debates 11256
omy 11255
▁governed 11255
▁outputs 11254
▁ratings 11254
▁eib 11250
▁spiritu 11249
▁fil 42963
itch 11248
▁warn 11248
raising 11247
▁deployed 11242
▁confer 12343
▁accessibility 11240
▁1993, 11238
▁seo 11235
▁municipalities 11235
▁lamps 11234
▁shel 11234
income 11234
▁assisting 11233
▁phases 11233
mans 11231
▁projected 11230
▁symbo 11228
▁florida 11227
▁specimen 11227
▁accommodate 11225
▁ecosystem 11223
clos 11221
ups 11219
▁rape 11219
look 11218
cid 11218
▁declare 11214
▁32. 11214
▁30% 11213
▁uganda 11210
heast 11209
tement 14275
▁endo 11204
▁recalls 11202
▁existed 11201
▁forgotten 11195
▁dischar 11194
▁lets 11194
sus 11193
anis 11186
effective 11179
▁oppon 11177
▁defines 11173
▁conveyor 11170
▁enjoying 11169
▁compatibility 11165
▁photographs 11160
1). 11159
▁reviewing 11158
▁mile 11154
▁favorites 11152
▁resign 11148
band 17205
tian 11145
ui 17019
plasma 11141
▁unfor 11138
▁experiencing 11137
▁iraqi 11137
▁vulnerability 11135
▁commodity 11134
▁azerbaijan 11134
▁bug 11131
▁disappear 11127
▁constitu 20017
▁durable 26890
play 11124
ont 79735
▁leak 11121
▁autonomy 11118
istence 11117
▁27, 11116
▁stops 11115
▁readers 11115
▁souls 11113
▁2016, 11112
▁memorial 11110
▁matching 11109
▁trucks 11107
▁australian 11105
▁contributes 11105
gt 94639
▁upgrade 11104
▁sights 11099
▁neutral 11099
▁crus 11097
ival 11097
▁29, 11093
duction 11091
▁cher 13279
ono 64789
▁networking 11085
▁divorce 11083
▁friendship 11074
imed 11074
▁automotive 11074
▁critici 11071
▁retention 11071
▁hack 11070
▁harassment 11068
▁clubs 11068
▁craft 11065
▁dos 127025
▁fulf 11065
▁tunnel 11062
▁preserved 11057
▁tunisia 11056
▁presentations 11047
▁3) 13259
▁hamburg 11043
thing 11041
,... 11035
▁tooth 11034
▁jacket 11032
▁livestock 11032
▁rings 11030
ened 11028
▁restriction 11028
▁frozen 11027
vir 14478
▁insulation 11025
▁101 11024
ogenic 11021
▁styles 11019
ria 13775
▁neighbor 11016
speed 11012
▁subscription 11011
▁mixtures 11010
▁shuttle 11009
▁panama 11008
▁sophisticated 11007
▁reproduction 11006
▁consistently 11006
4% 11730
▁bang 11005
▁reaffirm 11003
▁expense 11001
athe 11001
▁drying 11000
▁elementary 10997
rc 10994
depend 10992
▁attorney 10990
▁tanks 10990
▁cabin 10986
▁bern 10985
▁tens 10981
▁adequately 10976
▁challenging 10973
▁deck 10972
▁jew 10966
▁valencia 10966
▁delegates 10965
:// 10979
nish 10962
▁extrem 10962
6% 11355
▁administrator 10958
▁bold 10957
▁postal 10955
unted 10948
▁trav 10946
▁glob 10945
▁hosts 10945
bri 19543
▁1999. 10942
▁amazon 10941
▁rotating 10939
▁ilo 10937
.1, 10931
▁wra 10929
▁excel 10929
▁earnings 10929
▁cryst 10928
ighter 10926
aps 10922
▁dwell 10919
▁penal 19759
▁rum 10917
▁alb 10916
▁cc 10916
pati 10915
▁viewing 10912
▁wheat 10912
ulating 10910
74 12763
▁memories 10903
dd 10901
▁140 10912
▁sauna 10898
▁modification 13983
▁tiny 10895
▁mand 21943
ason 10895
▁designation 10894
▁surf 10893
▁stir 10892
▁160 10939
▁palm 10888
▁junior 10888
ury 10887
hol 10886
▁201 10886
weapon 10884
▁gentle 10883
lot 10883
▁cruel 10881
ios 17826
▁architect 10878
▁minimal 10877
lations 10874
▁advise 10873
▁bob 10868
▁auxiliary 10867
▁sail 10865
▁manually 10865
▁synthesis 10864
▁appreciated 10864
▁35. 10864
▁abandon 10863
▁institutes 10861
▁tack 10860
▁robot 10857
▁routine 10857
▁crises 10854
▁vs 10851
▁spokes 10850
▁imperial 10850
▁vel 13434
▁stack 10847
▁(1). 10847
exe 10847
ied 10844
▁painted 10844
pen 10842
▁holders 10842
▁variations 10837
▁overse 10837
▁replica 10835
▁perception 10832
▁batteries 10831
▁earthquake 10828
56 13713
cept 10827
▁wing 10825
▁comparing 10824
▁allowances 10823
▁innocent 10822
▁downtown 10822
▁convenience 10820
▁lib 20204
gri 10819
▁cavity 10819
▁fibres 10817
▁shadow 10814
▁unfair 10813
▁assignment 10809
▁brush 10807
unced 10806
rooms 10805
▁33. 10804
▁noticed 10802
201 13767
▁md 10800
▁suicide 10796
▁doctrine 10791
▁ethical 10789
▁carriage 10788
▁marina 14623
▁fir 10787
thr 10785
▁absorb 10784
▁oldest 10783
pres 13145
▁reportedly 10778
▁councils 10778
▁sever 10774
public 10773
▁diss 10772
▁surge 10771
▁intern 10771
mat 10769
▁discre 10766
phenyl 10763
cence 10760
pay 10760
graphy 10756
▁deposits 10756
▁monument 10756
▁modes 10755
pad 10753
▁toronto 10752
ograph 10752
och 10751
itate 10750
dal 10747
▁stadium 10742
▁annular 10741
68 12794
dp 10739
ape 10738
▁harmonization 10737
▁dominant 10735
ami 14896
▁expos 10734
▁woods 10734
hm 17424
ption 10724
69 12514
▁coherence 10718
place 10718
▁myanmar 10717
▁headed 10714
▁estonia 10713
▁beta 10712
▁highway 10710
▁pes 26766
▁refriger 10707
▁contemp 11744
tex 10812
tc 10704
▁ent 56030
▁gay 10700
▁concentrations 10693
▁rap 10692
▁violated 10690
lical 10686
▁maker 10685
omon 10685
▁establishes 10683
▁landing 10679
▁slave 10678
▁bin 34437
lers 10676
▁approve 10675
▁tubular 10673
▁scanning 10673
rant 10672
▁99 10671
▁admit 10671
▁coalition 10670
▁imaging 10669
▁assum 10668
▁cake 10667
▁anxiety 10667
▁insulin 10661
▁eea 10661
▁temporarily 10661
▁hygiene 10661
▁amenities 10656
▁pvc 10656
▁continuation 10656
▁pride 10656
-15 10653
3% 12581
▁maternal 10652
▁retro 15161
▁collec 10649
pra 10644
▁preferences 10644
▁meth 10641
▁pharmaceu 10638
▁instances 10635
▁bib 10634
▁extraction 10634
▁electrically 10631
▁hungarian 10630
▁graphic 10630
61 14741
▁wr 10629
▁safely 10625
ae 10623
▁drum 10621
ima 15483
▁convey 10618
wers 10612
▁architectural 10610
▁posed 10610
▁shareholders 10608
▁meta 14575
▁foreigners 10603
▁extensions 10599
ungs 157534
ison 15772
▁exporting 10596
▁approx 10592
▁ignor 12469
▁advocacy 10586
1), 10584
bian 10584
▁automated 10582
▁(19) 11565
▁elect 10582
esty 10581
itive 10579
▁absor 10571
electric 10569
▁axial 10567
▁uncertainty 10565
▁recipe 10561
▁termination 10561
/0 10560
▁nas 15786
▁doses 10557
▁assault 10554
▁slee 10554
▁liberal 10554
urious 10549
▁nit 10639
please 10546
▁discretion 10544
▁prostitution 10544
▁compression 10543
▁liable 10542
▁inspections 10542
▁memorandum 10541
▁refined 10540
▁elevator 10539
▁incidence 10538
▁prominent 10537
▁distinguish 10535
▁singer 10534
▁juvenile 10532
▁metallic 10527
▁matches 10526
▁diesel 10525
▁investigated 10523
bles 27501
▁lucky 10519
▁restra 10519
ound 10514
▁salts 10513
▁0.2 10511
▁dirty 10511
▁91 10508
fp 10507
irt 10506
uli 19143
▁consecutive 10504
▁cope 10504
fish 10499
▁reveals 10499
/100 11536
▁chap 10497
tim 14836
▁toy 10497
▁desirable 10497
▁industri 10966
▁brazilian 10492
▁piano 68872
▁chlor 10491
▁parish 10488
treatment 10486
owned 10485
uc 10485
gun 10483
▁nearest 10483
six 10480
▁sensitivity 10476
▁credi 10475
▁incorporate 10472
▁wel 10541
▁choi 10470
afe 10469
▁hip 10468
▁xi 10466
▁37. 10465
▁decre 10462
▁ss 10460
▁kilometres 10458
pel 10458
▁circum 10458
style 10457
▁proteins 10456
▁anticipated 10452
▁clicking 10451
wardly 10449
▁wat 10449
▁chains 10447
▁pairs 10446
▁districts 10446
▁bracelet 10446
will 10445
▁$2 10444
▁designers 10442
▁sout 10441
▁macro 10441
▁galaxy 10441
▁males 10435
▁shoe 10435
▁silent 10430
▁neighbourhood 10429
▁lovers 10429
gue 13800
bid 10428
▁fate 10426
▁chang 10426
▁delight 10424
dem 14802
action 29286
▁asks 10422
▁layout 10419
▁nonetheless 10419
▁sec 22851
▁surplus 10417
▁mechan 10414
marks 10412
▁discussing 10412
(9 10438
▁entit 10410
urg 10408
▁aesthe 10405
▁upcoming 10405
▁mes 52688
onal 10399
ict 10399
▁supervis 10398
eri 21915
▁limitation 10397
:1 11982
▁pepper 10393
▁buses 10389
▁dom 15853
▁venue 10388
ighth 10386
▁quotas 10386
▁tagged 10385
▁celebrated 10384
mus 20236
6), 10381
cul 10909
▁bom 10380
▁crash 10378
▁preview 10376
▁avoiding 10374
tif 45654
▁rol 10501
▁beg 10368
▁alien 10364
▁88 10363
▁vene 10361
▁micros 10359
ben 62970
books 10357
hydro 10356
▁liberation 10356
▁nucle 10354
▁advertisement 10354
▁peacebuilding 10352
iable 10351
▁degradation 10349
▁engineers 10349
▁uv 10346
▁freight 10345
▁statutory 10344
▁frames 10343
:3 10341
▁jam 10341
hem 10341
▁cookie 16005
▁basel 10334
gent 10330
▁cyber 10330
ania 11737
bers 10327
▁willingness 10327
▁females 10325
city 10324
fen 45053
mil 10322
▁supplying 10320
▁attendance 10315
▁1985 10824
arians 10313
▁mitigation 10312
aut 11648
ject 10310
▁founder 10309
▁manifest 13043
▁relaxation 10308
ez 22236
▁seating 10302
long 10301
▁strain 10300
alize 10300
▁sectoral 10299
▁ingredient 10298
▁welding 10298
▁knife 10295
uri 14815
ults 10293
▁linen 10291
▁examining 10290
▁cuban 10290
▁assured 10289
▁anticip 10288
gb 10286
▁interconn 10285
▁reactor 10282
▁precau 10282
▁34. 10282
▁converting 10280
apped 10279
▁cloth 10278
▁(23) 11108
▁colonial 10278
▁nest 10278
▁labelling 10278
▁voices 10272
rich 15239
ld 10271
str 10560
▁cru 16742
▁cultivation 10267
▁fron 10266
▁40. 10263
yard 10262
fra 18384
▁comparative 10260
▁logical 10258
▁tenth 10256
▁curriculum 10255
▁disadv 10253
199 15035
▁vinyl 10244
phe 10239
▁theoretical 10239
▁liabilities 10238
▁muscles 10234
oks 10233
▁gram 10231
▁shif 10227
aia 10225
hon 10224
▁spar 10222
▁pine 10222
▁tiles 10217
aliz 11731
oline 10214
▁cannabis 10213
▁cycles 10209
▁dye 10208
alu 10207
.). 10206
held 10204
virus 10204
▁reservoir 10203
pic 10203
▁rotor 10202
▁descend 10202
▁ki 10202
▁fuels 10197
▁ov 10742
▁proliferation 10194
▁bene 31584
▁harbour 10191
▁moisture 10191
essor 10189
▁globe 10186
▁faculty 10184
▁cont 19143
▁stead 10182
char 11619
▁innovations 10182
▁combines 10179
office 10178
▁enforced 10177
▁beef 10177
containing 10176
▁handed 10175
▁stipu 10175
▁interact 10169
63 13315
▁experiments 10168
ó 226492
▁spy 10162
▁viv 26475
▁downloads 10152
▁charity 10151
▁variables 10148
▁intel 10147
▁obser 10147
▁eliminating 10146
▁predomin 10146
▁horses 10145
▁compete 10145
▁zinc 10143
▁steady 10142
▁stimulate 10142
▁fluor 10137
▁hc 10137
▁powered 10137
č 10136
pected 10134
▁ske 10133
▁armenia 10132
▁francisco 10132
▁timel 10131
▁rentals 10129
good 10129
▁dublin 10128
uer 35349
▁ties 10121
▁bangladesh 10120
▁enforce 10115
▁pled 10114
▁credits 10111
▁bund 10106
encies 10103
▁calculating 10103
▁featured 10099
▁virtue 10098
▁tendency 10097
▁finishing 10095
▁gam 10095
▁191 10094
▁73 10093
▁licences 10093
max 10092
▁reiterated 10091
▁quantitative 10091
▁sensing 10090
elves 10089
▁dict 10089
▁construct 10088
▁varieties 10087
▁struck 10085
estab 10085
▁contradic 10085
▁eve 10082
▁ano 10080
▁hans 10077
▁dramatic 10074
▁mb 10070
▁updating 10068
▁explicitly 10067
▁hosting 10066
▁confusion 10066
fourth 10064
▁pensions 10060
▁pumps 10057
liness 10057
▁reb 10055
▁(34) 10944
▁reinforce 10054
▁cycling 10053
▁optionally 10052
▁rib 10050
▁derivative 10046
▁zip 10045
▁kyoto 10045
▁panoramic 10042
▁unf 10042
▁sedu 10041
▁rough 10040
▁treasury 10036
▁labels 10036
▁yarn 10034
▁cited 10034
word 10025
▁flavo 10025
▁coat 10024
emic 10023
▁pose 12779
▁87 10021
▁nursing 10021
▁hin 34830
▁gravity 10019
▁(22 10015
▁stockholm 10013
▁conver 10012
▁temper 10011
▁unbe 10006
▁alloc 10004
▁mediation 10001
▁accelerate 10001
holic 10001
▁mesh 10000
▁collapse 9998
▁mutually 9996
▁tin 9995
bert 10198
▁genocide 9992
▁plaza 12668
▁10,000 9990
▁cure 9989
▁divers 26211
▁tire 9980
▁liaison 15809
▁perspectives 9980
▁annexes 9978
▁gps 9977
▁arabic 9975
▁crafts 9974
9% 10703
xide 9973
▁(0) 9972
dimensional 9971
▁lifetime 9971
ographic 9971
▁drill 9970
62 13337
▁habits 9966
▁depart 9965
▁geo 9965
▁dispers 9963
▁upload 9961
▁absorption 9960
▁www 9958
apest 9954
▁injec 9952
taining 9950
agre 9943
▁1998. 9943
regional 9940
▁norm 12111
undering 9934
▁xxx 9933
▁albania 9931
▁hiking 9924
tably 9923
▁proportional 9922
▁aromatic 9922
robe 9921
rent 16207
▁eradic 9919
▁advocate 9918
vas 19813
▁continu 24948
▁node 9912
▁porto 20795
▁fasten 9908
▁limiting 9908
▁retained 9906
▁gray 9905
▁plas 10067
▁kw 9900
▁dictionary 9900
▁bik 9899
atin 9898
▁proc 9897
▁budapest 9897
▁formulated 9893
700 9893
▁(1, 11472
these 9893
▁declarations 9891
yd 9891
▁lebanese 9891
▁enclos 9890
▁bann 9890
▁tech 9888
▁richard 9883
▁macedonia 9883
▁alignment 9882
▁economically 9880
▁fibers 9879
nation 9877
fit 9877
▁shanghai 9873
▁hid 9873
▁plastics 9872
▁accompanying 9871
▁issuing 9871
▁buffet 9870
▁côte 11423
▁spher 9869
▁defenders 9869
▁initiate 9867
▁juan 14753
▁ageing 9864
pop 9864
▁winding 9864
▁noble 9861
▁favo 9858
▁distinguished 9853
depth 9853
▁corin 9852
▁fisher 9851
▁conten 13642
▁anavar 10225
10, 9850
2.1 10085
▁integrating 9844
▁democra 9843
priv 9840
▁subcommittee 9840
▁pupils 9839
▁tournament 9839
▁archae 9839
▁succeeded 9837
rist 9836
▁mainstreaming 9835
▁von 1455502
ethyl 9833
▁1987 10250
▁tokyo 9831
▁calculate 9829
bank 11086
▁developer 9825
▁generic 9822
▁ballo 9822
▁alpha 9821
▁colle 9818
▁briefing 9815
determination 9808
▁acknowledge 9805
activ 9804
yle 22383
▁dominican 9803
▁earned 9803
▁disappeared 9802
-11 9800
▁orthodox 9798
▁seam 9798
▁wer 26594
▁aposto 9796
ball 9795
▁pricing 9794
▁easter 9792
▁lecture 12361
▁retaining 9791
▁rarely 9789
home 9786
▁vari 36157
oring 9780
▁beliefs 9779
▁bears 9778
▁numer 9775
▁dal 287420
▁consulted 9774
▁referendum 9771
▁1986 10107
▁mic 9770
▁amounted 9770
▁mun 10821
▁sard 9766
amine 9765
▁96 9765
▁liqu 9763
▁exceeded 9760
▁cin 11938
▁maintains 9759
tries 9755
▁respiratory 9754
▁reson 9753
appoint 9751
▁shield 9749
unce 9746
cis 16394
▁dragon 9741
space 9741
▁lanka 9738
▁tomato 9737
▁renovated 9737
▁continental 9735
▁echo 9731
▁warehouse 9731
▁promotions 9730
▁sul 195001
wort 9724
▁sant 13307
▁partition 9722
▁uncertain 9720
hua 9717
▁olymp 9716
▁lending 9716
▁celebr 9743
▁fits 9714
.- 15414
▁occurring 9713
▁delicate 9712
page 9711
▁shed 9708
east 9708
▁(2). 9707
▁insertion 9705
▁linux 9704
paid 9699
arms 9696
▁http 9693
▁va 77218
▁encompass 9692
▁10:00 9692
zens 9692
▁69 9691
omet 11028
▁conductor 9690
effici 9690
▁responsive 9688
▁86 9687
enta 28655
▁investing 9678
▁folk 9675
▁conviction 9673
▁organiz 10604
▁remuneration 9671
.6 9670
fold 9669
onic 9668
▁storm 9665
▁draws 9665
uma 11804
▁objection 9663
card 9663
▁sponsor 9663
▁darfur 9660
▁criterion 9655
▁malaria 9653
▁ensured 9651
▁unacceptable 9649
▁replies 9649
code 13786
▁gong 9647
▁tent 9645
▁medieval 9645
▁emphasize 9644
▁canal 20373
▁swim 9642
text 9641
▁(25 9640
itance 9638
▁thereafter 9638
▁sealed 9636
▁carb 9634
▁rhe 9634
▁jacob 9633
▁avoided 9633
▁aver 37527
tend 10061
▁slaughter 9628
▁vig 9627
test 9627
▁indi 23034
▁evid 9625
▁lear 9625
▁inland 9621
▁enhancement 9619
▁diplom 12843
▁casing 9616
▁tit 9616
▁lips 9614
▁compassion 9614
▁demographic 9613
▁assure 9610
core 9609
nal 9607
contin 9606
▁comple 9605
▁stretch 9605
▁monaster 9603
▁cambodia 9602
itz 22589
▁inequality 9600
ller 9598
▁(50) 10348
▁arrange 9597
▁attributed 9596
▁invent 9594
▁exterior 13924
▁pays 204830
▁perceived 9589
▁targeting 9586
▁vicinity 9585
▁outline 9584
▁proceeding 9582
▁ug 9581
▁stunning 9580
▁devi 10576
supp 9580
▁urgency 9579
▁passport 9579
▁friction 9578
▁spatial 9578
▁gem 20980
profit 9577
▁5% 9576
▁divide 9575
▁explosive 9573
▁wastes 9573
▁terminals 9572
▁98 9571
▁(17 9569
nl 10418
▁analyse 29324
▁navig 9560
▁sna 9560
▁spra 9559
▁mars 35911
▁valu 9557
▁asser 9556
discrimination 9555
irm 9552
▁determines 9552
▁pole 9550
▁ranges 9550
▁jewelry 9549
▁39. 9548
▁neuro 10935
info 10941
▁obed 9543
▁prevents 9542
▁perpetrators 9542
contra 9539
▁belo 9538
gener 9538
▁wt 9537
▁competitors 9537
▁realis 9536
location 9536
tiveness 9534
▁physics 9533
▁placement 9526
▁justify 9522
▁nipp 9521
meas 9521
▁peas 9521
▁36. 9520
▁2016. 9519
▁1.2 9518
oral 9517
▁boot 9517
some 9517
psy 9517
▁skilled 9514
▁workforce 9512
xx 9511
▁exceptions 9508
▁steroids 9504
fec 9502
▁advers 9501
▁stake 9497
} 16186
mentioned 9494
▁precip 9494
ician 9493
▁accep 9493
▁warrant 9492
7). 9490
▁observ 9958
pot 9488
round 9488
▁impunity 9482
▁ray 9481
▁acted 9480
▁mercedes 9479
▁ther 9479
▁emper 9478
▁imbal 9477
▁lifel 9477
▁aboriginal 9475
▁unlikely 9473
▁continuity 9471
pose 9470
▁antibio 9470
51 12996
▁appliances 9465
▁exped 9465
▁fails 9464
▁endless 9462
▁caution 9461
▁visitor 9461
▁indirectly 9460
ille 32106
▁prescription 9456
health 9454
▁clamp 9454
▁pursuit 9453
▁dys 9453
▁unnecessary 9452
▁turnover 9450
▁qualification 9450
▁minors 9450
▁24- 9449
▁cleaner 9449
information 54819
▁clip 9447
▁clamping 9447
▁differential 9446
▁xxxd 9445
▁pursuing 9445
▁geographic 9443
▁norwegian 9438
▁cattle 9434
▁cables 9432
▁campus 9430
▁athletes 9427
▁irregular 9426
▁soccer 9426
▁conve 9425
▁sentences 9424
oles 11774
pdf 9418
sho 9418
▁variation 9418
▁locally 9414
▁rack 9413
▁renew 9411
▁shorter 9410
▁decorative 9408
▁wifi 9407
▁350 9976
▁permanently 9406
▁ku 9405
alt 21441
▁reinforcing 9400
▁nos 162336
rone 9399
▁launching 9396
▁interval 9396
5). 9395
▁gli 399980
chen 73801
ran 17723
▁currencies 9388
rog 9620
53 11418
▁lon 9383
alys 9382
▁cel 10990
▁nomin 9380
▁clarity 9380
▁avenue 9379
▁lean 9375
▁sailing 9375
nu 14600
▁stroke 9375
▁brilliant 9374
fall 17001
▁swing 9370
▁accomplished 9368
▁exhaus 9365
▁220 9362
▁questionnaire 9362
▁irre 9361
▁multimedia 9357
▁alto 58244
ops 9355
▁hr 9355
▁□ 9355
▁fireplace 9354
▁indications 9354
has 9350
▁amplifier 9350
▁livelihood 9349
▁pant 9347
houses 9342
▁lung 9341
anes 14777
▁verified 9334
▁persu 9334
▁palestinians 9333
ax 9330
▁tic 9465
▁connec 9329
▁yacht 9328
▁delegated 9326
# 9324
59 12515
▁ny 9321
▁aligned 9318
▁cleans 9318
▁vip 9318
anger 9318
03 9316
▁ohchr 9316
cost 9315
▁93 9313
04 9310
ea 9309
taking 9309
▁curve 9304
▁laboratories 9304
▁tile 9304
lish 9303
▁facilit 11399
▁confidential 9300
▁marble 9299
▁formally 9298
▁ow 9297
▁sung 9296
kl 13773
pet 10773
▁quad 9288
▁chloride 9288
▁licensing 9284
▁jos 9283
▁openings 9283
▁08:00 9283
▁penis 9278
▁scen 9276
▁gy 9272
▁kinder 41064
▁sr 49661
▁oriented 9269
▁completing 9269
cript 9268
▁toile 9268
▁1992, 9267
▁settle 9266
▁nepal 9266
cover 9262
/2013 9910
▁undoub 9260
▁physically 9258
▁springs 9257
▁varying 9255
▁divisions 9255
copic 9254
▁embedded 9253
▁intolerance 9252
▁credibility 9250
▁kidney 9248
copy 9248
▁invested 9247
▁columns 9244
▁2017, 9244
▁neutr 9240
wise 9238
▁cosmetic 9237
▁radic 9237
tral 9237
▁rejo 9236
▁steroid 9232
06 9231
▁copenhagen 9231
tices 9229
▁prob 11410
▁prono 9226
▁preference 9224
▁spirits 9222
▁mans 9222
▁hunting 9220
▁linking 9220
▁globally 9217
▁(25) 9969
▁flags 9215
▁nut 9215
hole 9214
▁rational 9213
▁synchron 9212
▁generous 9209
▁mold 9208
▁pounds 9208
map 9207
umping 9205
▁suction 9201
▁footnote 9199
▁attain 9198
position 17362
rus 9197
dc 9461
▁william 9194
▁suggestion 9189
▁expressions 9189
▁hdz 9189
▁frankfurt 9188
▁38. 9187
▁raspberry 9186
< 9632
▁judgement 9184
▁profess 9184
chlor 9181
▁deprived 9175
urer 9857
▁captured 9173
▁basin 9173
/3 9172
▁poison 9170
▁formul 9169
bio 10483
▁shar 9166
▁pipes 9165
▁discounts 9164
gence 9160
tam 10272
ancies 9159
▁analyze 9158
▁breeding 9155
▁refusal 9154
▁sponsors 9152
▁vibration 9150
▁straw 9148
▁stylish 9146
▁cape 9143
▁aero 9143
▁yiel 9142
▁implies 9142
▁84 9140
▁intermedi 9138
▁varies 9137
note 9136
▁chances 9135
▁125 9235
▁lacking 9130
▁suspect 9127
▁boundaries 9127
▁investor 9123
take 9120
▁breaks 9119
▁eighth 9118
▁penet 9117
dial 9117
▁sig 18425
▁wool 9116
▁interpret 9116
▁nano 9115
▁serial 9114
▁compressed 9113
▁resumed 9111
▁rul 9109
▁peer 9107
▁obama 9105
▁78 9103
▁endors 9102
▁resist 9100
▁rs 9099
▁suited 9094
▁regulating 9091
▁promotional 9090
tar 18042
pend 9373
para 10970
▁chapters 9085
yp 9082
▁adviser 9081
▁monuments 9077
▁drops 9075
urb 9074
▁operative 9074
▁databases 9074
▁inject 9073
ril 9072
▁viii 9072
▁swift 9069
rel 9065
▁decent 9062
week 9061
▁montenegro 9061
▁abili 9060
▁bottles 9059
▁phrase 9057
▁hormone 9056
▁makers 9055
▁silk 9054
▁fusion 11150
▁illeg 9054
uel 13229
▁oceans 9048
▁consultants 9046
▁buddh 9044
▁efficacy 9041
▁eng 19811
▁invasion 9039
fifth 9039
bound 9037
▁192 9035
▁declined 9034
hydroxy 9111
/12 9029
human 9029
▁pills 9026
án 70952
▁hood 9024
mg 9023
▁fabrics 9023
▁resol 9023
▁systematically 9020
▁condemned 9016
▁blend 9016
▁lam 10210
wg 9011
ander 9009
item 9009
ulations 9005
▁(21 9004
▁insulating 9004
▁thereon 9003
ctors 9003
▁glucose 9000
▁tie 9000
▁coup 15439
▁silicone 8997
▁develops 8996
▁prestigious 8994
▁sponsored 8993
▁infring 8992
iles 17246
▁locked 8990
▁sunny 8990
lected 8989
ago 13720
▁homepage 8985
▁bbc 8982
▁bc 8981
kh 8981
▁illumin 8979
▁pharmac 8978
▁kazakhstan 8978
▁accounted 8974
▁electrodes 8974
▁ana 8973
▁tremendo 8971
▁minimize 8967
▁motors 8967
ark 8966
▁webcam 8962
▁announce 8961
▁compla 8961
cyclo 8958
ppe 22492
▁encountered 8957
orship 8957
▁gratitude 8956
▁aging 8955
▁antonio 8954
▁renal 8953
▁0, 33075
your 8950
▁sett 8948
▁modular 8948
fix 8947
▁sequ 8947
▁spaced 8944
▁dir 26902
▁rela 8940
aka 8939
▁dedic 10156
▁occurrence 8939
▁activation 8938
▁orchestra 8936
ctory 8933
ern 62111
▁80% 8930
▁forthcoming 8929
▁indispensable 8921
esa 14812
government 8918
bil 18860
▁mobilization 8916
▁engra 8914
▁fao 8912
www 9927
▁visu 12512
▁cartridge 8910
▁recipro 8909
▁dg 8909
▁cardinal 8907
.1) 9282
▁exceeds 8903
loss 8903
also 8900
oting 8897
defin 8897
▁indicative 8897
▁convened 8893
▁4.1 8892
▁promising 8891
▁severely 8890
▁ld 8890
▁embassy 8890
▁fragr 8889
▁marco 59261
▁poss 8888
▁ozone 8887
▁motorcycle 8886
stance 8884
▁recycle 8883
▁nutritional 8882
▁minerals 8878
inny 8877
ird 8876
▁canvas 8875
▁literacy 8871
▁adapter 8871
rit 18562
▁regulate 8869
▁withdrawn 8867
▁commodities 8866
▁insight 8866
▁domination 8865
(4) 8863
lab 8858
▁retra 8858
▁dynamics 8857
▁lid 8856
ember 8856
▁attacked 8855
▁evaluating 8854
▁congratulate 8847
▁abus 9284
dra 8844
▁americas 8842
istan 8842
▁emotion 8841
ague 8838
▁repatri 8837
▁scores 8835
▁oc 8835
▁immunity 8833
▁exercised 8831
▁timber 8831
ister 15394
▁proximity 8829
chem 9341
▁loy 8828
▁texture 8828
▁ecosystems 8827
▁corr 8827
lan 15047
▁shipment 8826
alo 16948
▁journalist 8824
pack 8822
▁irrit 8821
rad 18122
▁amid 8817
cit 8817
▁ottawa 8816
▁documentary 8815
▁corre 11910
▁timor 8814
▁daugh 8813
/11 8813
▁renov 8813
▁multic 8811
ports 8810
▁prisons 8810
▁infringement 8809
▁pier 8806
▁modifications 14368
8), 8803
▁emb 8802
▁blocking 8798
▁protects 8795
▁cruise 8794
▁humidity 8790
▁princess 8788
estri 8784
▁tabled 8783
57 12167
▁dw 8782
▁honduras 8779
▁servic 8778
sur 11768
▁splend 8774
▁waterproof 8773
▁drought 8772
▁engineer 8772
▁kil 8771
▁ester 8769
delivered 8767
▁selective 8766
design 8765
▁alco 8764
▁tetra 8762
▁angeles 8761
lio 13954
cip 10498
▁nicaragua 8756
erve 8756
▁documented 8755
▁communicated 8754
▁suspend 8754
tica 80291
phones 8753
▁legisl 8752
▁recipes 8751
▁recre 8750
▁boundary 8749
▁proceeds 8748
spe 8746
▁borne 8744
▁ted 8743
▁modalities 8743
▁dick 8741
▁pressures 8740
main 8740
▁stere 8739
while 8739
▁unlawful 8737
/8 8737
▁momentum 8736
▁lion 8735
▁.. 8734
▁intent 9061
▁substitute 8732
▁respecting 8730
▁timetable 8729
▁wings 8729
writ 8729
▁mod 21314
▁separating 8728
▁communion 8724
▁colore 30111
▁champion 8723
ishment 8723
▁incorporating 8723
/199 8722
▁wavelength 8721
▁radioactive 8720
▁attempted 8719
▁troop 8716
▁renowned 8716
▁projections 8716
▁gaming 8714
▁computing 8713
▁imposing 8713
▁striking 8712
▁jersey 8711
▁masters 8709
58 11742
▁falun 8704
▁dealer 8703
▁fold 8702
▁abolition 8701
ev 11379
▁combinations 8697
▁lenses 8697
20, 8697
▁accepting 8695
▁readily 8694
▁loaded 8692
▁bronze 8692
▁89 8690
▁dimin 8690
▁imper 8690
▁canon 8689
▁quanti 11367
▁egyptian 8687
▁wax 8686
▁disadvantaged 8685
wp 8685
▁fingers 8683
▁prac 8682
▁transmitter 8682
▁bou 11898
▁mul 8723
▁festivals 8676
▁cheer 8675
▁simulation 8672
/4 8672
▁clinic 8671
▁trademark 8671
onian 8670
ng 8669
keeping 8669
gether 8667
▁agrees 8664
▁template 8663
▁76 8663
▁modest 8662
▁wildlife 8661
▁seiz 8655
▁regul 8654
▁iaea 8653
▁reset 8652
▁ferry 8649
▁allo 50550
54 11291
▁recited 8647
▁clay 8646
▁repay 8645
▁dot 8645
▁soci 9350
▁1997. 8637
annual 8636
▁torque 8636
▁dol 8636
▁spinal 8635
▁gras 8633
communication 8633
▁nominal 8631
▁1960 8631
▁nick 8629
0.00 8628
▁commented 8628
▁scrat 8626
▁aggression 8624
olar 8624
▁rac 8622
ligh 8622
dens 8621
▁graduate 8618
▁pools 8617
▁dairy 8614
gin 8614
▁conservative 8613
rain 8612
▁hono 8611
tie 26285
▁ecb 8609
break 8605
▁bills 8604
52 11802
his 8602
▁barbecue 8602
▁altar 8601
▁binary 8601
english 8601
▁(198 8600
▁40% 8600
.12. 9283
/9 8624
ruption 8595
tifying 8593
▁reaffirmed 8591
europe 28601
▁71 8589
▁libya 8588
▁rele 8585
▁negotiated 8584
▁45. 8583
· 190993
▁notion 8583
sharing 8583
▁payable 8582
▁macroeconomic 8582
▁biom 8580
iler 8580
▁uni 10847
▁mosaic 8578
▁senegal 8575
▁bowl 8575
two 8574
▁satisf 8572
▁spr 9896
▁moder 10803
▁alexander 8564
rie 23012
working 8557
▁pillar 8556
mt 13105
▁wishlist 8554
lig 22053
▁transferring 8548
▁perpendicular 8546
▁notwithstanding 8546
▁stating 8544
layer 8543
▁13: 8541
▁traditionally 8541
▁carpet 8537
tructure 8537
▁angola 8536
:10 8660
▁1/ 8535
▁respects 8535
▁differently 8534
▁blocked 8534
▁staffing 8534
▁titanium 8533
dor 24303
▁43. 8527
▁imagination 8527
mag 8858
▁beneficiary 8524
local 8522
▁wins 8521
chemical 8521
▁gates 8521
tieth 8519
▁incentive 8518
oled 8517
▁conduc 8516
09 8661
▁civic 8516
▁proposing 8513
alle 20926
▁uno 204457
▁handled 8509
▁lip 8509
▁lic 8508
▁magnitude 8507
▁aggressive 8507
▁smith 8507
bling 8507
▁gall 8505
▁outreach 8504
▁purely 8503
▁ker 11273
maker 8497
locked 8497
▁prolonged 8496
var 10708
▁laptop 8495
▁unified 8495
fol 8495
▁developers 8494
vian 8493
oli 19115
▁traged 8491
▁hepatitis 8489
umes 8488
▁boom 8485
▁artic 10093
neys 8484
▁reiterates 8483
▁exercising 8482
▁residual 8482
▁messenger 8481
▁flame 8478
ear 8476
▁subprogramme 8474
▁nm 8473
▁briefly 8471
▁organisms 8471
lips 8470
▁fib 8468
▁defer 8468
▁scand 8468
▁(36) 9214
estone 8467
▁certainty 8466
▁shelf 8466
▁submissions 8464
dt 9860
▁15: 8463
▁rue 15508
▁gb 8457
▁arena 8455
▁chic 8455
▁cosmetics 8455
'' 8455
▁(2, 9620
▁feasibility 8451
▁bever 8450
uda 11328
techn 8447
▁viable 8446
▁parental 8445
ika 8445
▁disciplinary 8445
▁shirt 8442
▁narco 8440
▁inhuman 8440
▁anno 49579
▁agriturismo 13379
pf 19957
▁ghana 8430
▁twenti 8430
▁privilege 8429
▁reass 8428
coming 8427
▁recur 8427
▁nuts 8426
▁enjo 8425
▁crack 8425
▁chicago 8424
▁maternity 8424
ief 8421
▁titles 8420
yards 8419
▁testament 8417
▁calcul 15289
▁bits 8416
▁trick 8415
▁clarification 8414
ologist 8413
▁lun 8413
▁designing 8412
▁loyalty 8410
▁urg 8409
▁tanzania 8406
▁grip 8406
▁rh 8404
▁patrol 8401
▁fem 8398
path 8397
,' 8396
▁drawings 8395
▁2017. 8394
orn 9556
▁collaborative 8392
▁seasonal 8391
▁selec 8390
▁nat 12731
▁acrylic 8388
▁■ 8558
▁aiming 8386
▁mainstream 8385
▁failing 8384
▁patri 10397
▁dryer 8380
number 8379
tise 8378
sin 8375
▁gloss 8375
▁athens 8371
cast 8367
▁unprecedented 8365
elo 15490
▁tangible 8358
▁(50 8358
▁static 8358
▁physician 8354
▁invisible 8353
▁sher 8353
berry 8351
▁winners 8349
▁sed 13865
▁neo 8348
acity 8347
▁sle 8346
▁toll 8346
▁abnormal 8346
▁360 8463
▁definitive 8345
▁tribute 8345
blo 8344
green 8343
:24 11429
▁sty 8342
▁drilling 8342
▁narra 8341
.11 8341
▁74 8340
▁commands 8340
tual 8338
ón 62591
▁influenza 8337
▁97 8335
▁baseline 8334
▁gly 8334
▁ero 13919
mant 8332
▁pillars 8330
▁io 37523
▁foodstu 8325
▁benz 8888
▁restrict 8321
wal 8321
▁compartment 8320
grad 11935
dier 12079
▁81 8315
▁4) 9569
▁destro 8314
▁raises 8313
▁poll 8312
utter 8311
din 10986
▁inch 8311
▁subsection 8311
▁imf 8310
▁discriminatory 8309
▁unilateral 8305
▁auction 8305
▁transported 8301
▁inherent 8301
▁capsules 8300
▁ya 130834
mel 18896
▁intervals 8298
▁overs 8298
▁purchases 8297
▁desper 8296
▁nickel 8296
found 8293
▁concerts 8293
▁actuator 8289
)- 11418
roid 8287
▁hierarch 8286
▁ignore 8285
photo 8284
▁obstacle 8282
udes 8280
controlled 8278
▁eman 8277
▁europeans 8274
▁2018. 8273
▁vers 130095
▁deliberations 8272
community 8271
▁bind 8270
points 8269
uth 8269
▁bravo 8267
▁7: 8264
▁baltic 8264
▁restrictive 8264
▁deploy 8264
▁holdings 8261
▁resume 8261
▁libraries 8260
▁participant 8260
▁inflatable 8259
lid 8259
▁pact 8257
▁medi 12164
▁triple 8256
lim 9007
▁successive 8254
▁hp 8254
▁cement 8253
▁44. 8253
▁floating 8252
▁kh 8251
▁displaying 8249
▁41. 8249
▁activate 8248
▁shore 8248
▁fung 8248
ais 16377
ledge 8248
▁exploring 8247
▁lemon 8240
▁enters 8240
▁buttons 8240
.15 8238
▁eurostat 8236
▁79 8235
▁fet 8235
cri 11304
▁demonstr 8235
▁worlds 8234
▁ranked 8234
▁moldova 8233
lier 19963
▁batt 8231
▁horizon 8230
▁billi 8227
▁automobile 8226
▁fundament 8226
▁100,000 8225
▁recipients 8224
tell 26822
▁inters 8222
▁deterioration 8220
cam 10357
▁distant 8216
▁90% 8214
▁reper 8214
▁dependence 8211
▁eg 17759
flo 8207
▁flange 8207
/2009 8710
▁electromagnetic 8204
tz 13234
wor 8203
▁eliminated 8201
ocy 8200
▁xo 8201
zilla 8201
▁masses 8198
▁nucleic 8198
▁pent 8197
▁42. 8197
▁thai 8197
▁exported 8196
▁2.0 8195
▁$1, 8195
▁infectious 8194
▁motivated 8194
▁(42) 8801
▁infrastructures 8193
▁vent 12829
▁attributes 8192
▁monaco 8190
▁ninth 8189
▁prevalence 8188
▁medal 8188
erson 8188
▁cass 9840
▁dangers 8185
▁loose 8184
inia 8184
fund 8182
▁muslims 8181
▁brass 8180
▁founding 8178
▁50. 8177
▁complications 8174
▁embargo 55969
▁pertaining 8172
▁instagram 8172
▁(31) 8781
▁radial 8731
▁nairobi 8162
arch 8159
!! 8158
zu 35043
ision 8154
lished 8153
▁3.5 8152
▁counselling 8151
govern 8149
▁cooper 8149
▁(3), 8148
▁accompany 8148
▁algorithm 8147
dos 69323
▁degrading 8143
▁trusted 8142
6- 8140
▁mah 8138
▁confin 8137
▁grab 8137
▁secrets 8137
▁balances 8134
▁circles 8134
▁melt 8134
▁senators 8133
▁zo 8840
▁corrected 8133
fur 8129
▁pussy 8129
▁legacy 8127
▁rocks 8126
▁sauce 8125
▁incons 8123
ald 8123
▁cats 8123
truct 8122
ail 8121
▁fostering 8121
▁trag 14763
▁ofthe 8119
▁accountable 8119
▁seized 8118
itions 8117
▁ves 8117
▁poultry 8116
▁coco 8115
▁polic 8115
▁reti 17928
▁rendered 8111
â 21709
vs 8110
▁elev 8109
▁saints 8109
▁traders 8109
▁enh 8108
▁roughly 8108
▁mega 8106
▁kb 8106
anz 36934
▁pastoral 8101
vet 8098
▁subsidi 8093
istent 8089
▁keyboard 8088
▁fam 8087
07 8221
▁explicit 8086
▁cave 8084
mis 12118
▁widen 8084
▁screens 8084
▁1996. 8083
hard 8080
▁fake 8080
▁refra 8077
▁purple 8076
▁issuance 8076
▁stor 8076
tration 8076
▁improves 8074
▁oblig 12427
▁desertification 8071
▁posi 9540
▁finnish 8068
▁contacting 8067
▁researcher 8063
pod 8061
▁rho 8059
/2006 8372
▁competi 8054
▁circuits 8052
▁ramp 8050
▁collar 8049
▁qualitative 8049
▁contrib 8048
▁dosage 8045
▁inst 9420
wind 8044
▁broker 8044
▁rally 8043
ighten 8043
▁paste 8039
▁deterior 8039
▁merger 8037
tier 22052
esta 22647
▁underlined 8025
▁abuses 8024
▁strips 8023
▁lobby 8022
▁! 40611
▁utilized 8022
▁render 8021
▁inspector 8017
▁marg 8016
▁schedules 8015
▁scenarios 8015
▁minibar 9053
▁aires 8905
▁cow 8014
▁advisor 8009
▁navy 8007
▁bienni 8006
▁sep 8006
employed 8005
▁salaries 8004
enses 8002
▁packet 8002
aya 8002
▁respondents 7999
▁sink 7999
cio 46102
natural 7997
bath 7995
▁ces 265837
zar 30874
▁accommod 7991
fre 16483
▁mist 7991
ista 51398
▁justification 7986
▁psychiat 7986
▁promp 7985
▁unodc 7983
olly 7982
▁dele 7980
▁races 7977
▁dyn 7977
ku 9668
▁slip 7974
▁inclined 7974
international 7973
▁itiner 7973
▁revol 7973
▁concludes 7971
▁babylon 7968
▁additives 7967
▁tariffs 7965
▁hex 7965
▁columbia 7962
▁legitima 7960
▁@ 7960
▁nt 7958
▁enzyme 7958
ech 7956
ests 7956
▁submitting 7954
▁deposited 7953
ilo 9661
las 40852
▁aperture 7950
▁distribute 7949
odes 7949
▁enact 7949
stone 7948
atis 7948
eland 7947
irts 7947
▁wishing 7947
etta 26538
▁negotiate 7942
▁cong 7941
▁0.3 7940
liest 7937
van 10720
ello 20823
▁memor 7930
▁spouse 7928
lights 7925
▁cres 9555
▁epidemic 7921
▁communicating 7921
▁bride 7920
▁athle 7918
▁sew 7917
▁sne 7916
▁sid 7916
▁guardian 7914
vision 7913
▁attributable 7911
▁fare 79806
build 7908
ivers 7908
▁damp 7907
▁downstream 7905
▁attraction 7904
▁casinos 7904
▁audiovisual 7903
▁accurately 7901
emen 7901
▁rejection 7899
▁nort 7896
▁transverse 7895
every 7894
kla 7891
elli 15538
▁petroleum 7889
mod 13603
▁valves 7883
▁rows 7880
atch 7878
▁mandated 7878
▁census 7878
▁abstract 7877
private 7874
▁sper 10853
rin 8456
▁thermoplastic 7869
▁repent 7867
▁unanimously 7867
iso 12824
▁detainees 7866
women 7863
▁roses 7860
enth 7860
▁realiz 7858
-01 7857
▁1995. 7857
▁jose 7856
▁episode 7854
▁mai 82309
ace 7853
▁molecules 7853
▁curved 7850
▁extr 7849
▁gradual 7848
▁pov 7848
-( 9149
▁chemistry 7847
aped 7847
▁optimum 7846
▁integr 12784
▁folding 7843
▁approxim 7840
▁subsidy 7840
▁acceleration 7840
▁hydroxy 7839
▁plo 7839
clic 7838
uit 7837
▁ace 7835
elec 7833
▁magazines 7832
▁reimbursement 7831
▁enqu 7830
▁bent 7828
▁dioces 7827
uta 33973
▁colla 7825
lows 7825
vered 7824
▁delivers 7822
▁travellers 7821
lining 7817
▁trailer 7816
▁additive 7816
▁pione 7813
▁mud 7809
standing 7808
▁ct 7805
▁josé 9870
▁kra 10878
▁rim 7800
▁discrimin 12788
▁passive 7798
▁confidentiality 7798
heim 10361
▁remark 7796
▁atmospheric 7792
▁24/7 7792
▁2,000 7790
▁influences 7785
kt 65856
?” 7776
▁regimes 7775
▁25% 7775
▁epo 7775
▁notifications 7771
▁flex 7771
uly 7763
▁lg 7763
▁reiter 7978
omena 7761
▁buck 7758
anas 21666
▁metabolism 7758
▁crochet 7755
▁dete 7754
secretary 7753
▁facilitated 7751
▁soup 7750
▁emirates 7749
▁helmet 7749
isco 7935
graphic 7746
▁transistor 7745
▁handic 7744
▁halogen 7743
▁abu 7742
bag 7741
▁formulate 7739
resistant 7737
▁linguistic 7737
▁iranian 7736
▁rot 11822
▁distinc 7735
france 7734
▁afghan 7734
▁affection 7734
▁bh 7733
▁eas 7731
▁generates 7727
▁yemen 7727
ande 20380
▁supporters 7727
▁henry 7727
▁flowing 7726
▁appeti 7726
bage 7725
nin 7724
▁hem 7724
▁costume 7723
▁simplified 7722
▁trauma 7721
▁exporter 7719
▁analysed 7719
rop 8876
▁patch 7716
▁tox 8256
▁lectures 7714
eder 15663
/2004 7915
▁1). 7712
▁15% 7710
/2014 7932
dies 9513
▁juli 21501
▁gig 7709
▁auditor 7706
▁94 7706
▁escal 9171
▁rad 19174
isc 8198
▁gn 7702
▁lamb 7700
▁grape 7699
▁exo 7698
▁exclude 7695
▁rico 11937
▁wording 7692
▁hinder 7692
▁rope 7691
▁magnesium 7691
bt 22983
▁virtu 9984
▁replacing 7691
▁explosion 7690
lighted 7690
▁xenophobia 7690
▁maj 7689
asse 28870
▁installing 7687
eze 7686
▁immuno 7684
▁favourite 7684
-18 7681
vable 7680
aly 7679
cements 7677
orial 7677
social 7676
▁mate 7675
xi 7670
▁assembled 7670
▁dumping 7668
▁mortgage 7667
generation 7666
▁scotland 7666
eck 8230
sensitive 7666
-30 7665
▁correspondence 7664
▁motivation 7663
▁bust 7663
▁defici 7663
▁cb 7655
tec 8604
▁emergence 7651
tification 7648
▁geograph 7648
people 7646
▁1990, 7646
▁initiation 7646
▁succession 7646
▁altern 7645
▁fifteen 7643
▁expiry 7642
▁deriv 10924
▁contamination 7639
▁(3). 7639
▁landscapes 7639
▁lease 7639
▁scal 7635
▁origins 7633
(1)( 7630
mines 7627
▁pioneer 7625
benz 8100
vention 7622
bn 7620
▁instruc 7620
▁tailored 7619
usa 15507
ecu 7617
▁happ 7616
"). 7615
master 7613
render 7611
▁defects 7611
/2008 7884
even 7609
▁altitude 7609
factory 7609
▁secre 7609
▁truste 7607
▁dre 9697
▁inequ 7606
▁advertis 7606
▁sincer 7605
▁extradition 7604
▁pound 7603
▁inevitable 7602
cro 11448
▁igno 7598
bours 7595
▁buenos 11888
▁encouragement 7594
▁critic 7592
▁mut 10588
▁loads 7591
▁systemic 7590
▁meteor 7589
▁hyundai 7589
▁ret 7588
upp 7588
▁anchor 7586
ify 7585
▁unch 7585
▁kore 7585
▁acoustic 7583
▁nic 7582
rim 10110
hotel 35434
7), 7579
▁ges 39966
▁imag 7579
bir 7579
common 7577
ither 7576
▁mort 22749
▁privileges 7575
▁surround 7573
▁chad 7569
▁1.3 7567
dam 7567
▁astronom 7567
▁monitors 7566
aker 7566
▁rectangular 7564
tem 34668
▁viruses 7563
▁braking 7560
▁jazz 7560
phan 7559
▁cano 7559
mers 7556
▁embr 7556
▁utili 11078
▁contingent 7555
▁cooperating 7555
▁circulated 7552
▁(24 7548
▁objec 7546
check 7546
▁careers 7545
▁qatar 7545
dire 24175
fly 7544
anging 7543
▁int 10181
sang 7541
▁82 7537
rene 7536
▁fatigue 7534
▁sympath 7533
omas 8393
▁intimate 7531
fas 7531
aller 8678
▁timo 7531
▁17: 7530
▁warming 7529
▁sie 955656
▁multinational 7527
▁zimbabwe 7522
mare 11298
▁therm 7520
▁photographic 7520
▁undergo 7519
iser 32594
▁soap 7517
ild 7515
▁administrations 7515
▁46. 7515
▁michel 7514
agers 7513
▁vitam 7512
▁revit 7511
▁hereby 7511
▁piazza 13968
▁scor 7510
tag 20108
▁ax 7509
size 7508
▁pel 11985
fiers 7505
▁coca 7504
▁spe 10148
▁comprom 7503
▁testosterone 7503
ave 7502
▁16: 7501
▁ix 7500
▁activists 7499
gram 7499
▁pearl 7498
▁grinding 7496
9). 7496
▁bulletin 7495
▁isbn 7495
▁tumor 7489
▁opposing 7489
regu 7488
mor 11380
▁demonstrates 7488
▁accumulated 7486
▁donation 7486
▁hague 7483
bol 11999
▁backs 7481
▁14: 7480
▁49. 7478
▁winds 7476
▁grades 7475
▁potassium 7473
▁spl 7472
cum 7472
formation 7472
▁enlarged 7469
tainment 7466
▁disappearance 7465
▁tuberculosis 7465
\ 26056
▁irrespective 7459
▁invoice 7459
▁60% 7457
▁1984 8078
rais 7456
▁adop 7454
▁$3 7454
▁rat 38575
quel 7674
▁ib 7452
white 7450
▁meditation 7450
▁doll 7449
intend 7448
▁emer 7448
▁facilitation 7448
:01 7447
▁poorest 7446
▁victoria 9453
▁feasible 7442
▁pon 14883
▁pressed 7439
▁enlar 7438
▁impr 7432
▁taxpa 7431
▁suppression 7429
eda 11353
▁hectares 7428
▁bologna 7425
nia 7424
▁confront 7424
▁coefficient 7423
ighters 7417
▁anonymous 7416
▁eligibility 7416
▁vin 27833
ila 12228
orr 7410
▁mike 7407
bia 10763
ffer 9611
▁infinite 7405
▁ford 7402
stand 12993
bies 7399
▁bos 7399
08 7636
▁tensions 7396
▁diamonds 7395
▁cir 11537
▁confirms 7391
▁tray 7391
▁pixel 7390
▁gor 7387
fluoro 7387
▁premier 91108
▁anab 7385
▁aggreg 7384
▁offenders 7382
▁inhab 7382
▁anch 7382
▁ascer 7381
ö 47739
ef 7440
▁convicted 7380
▁rt 7380
▁tissues 7375
▁lor 7375
kore 7373
ius 7372
▁monomer 7372
tax 7371
▁patience 7370
▁umbre 7370
▁47. 7368
▁molecule 7368
▁tun 27146
▁manif 7365
ode 8192
▁rolex 7364
pur 7361
▁radius 7361
▁× 7995
▁liberalization 7361
▁imperative 7360
clean 7357
hren 12884
ressing 7351
urch 7347
▁xx 12240
treat 7342
▁cond 10134
▁seasons 7342
▁entrepreneur 7341
▁1994. 7341
▁antigen 7341
▁48. 7341
post 7336
▁cameroon 7334
▁depre 7331
▁energies 7330
▁cyclo 7329
rill 7326
▁lining 7325
▁coordinates 7325
jec 7324
▁diving 7322
▁ventilation 7319
▁funer 7318
▁endanger 7315
▁8: 7315
▁forecasts 7314
▁offshore 7314
▁sends 7313
▁valle 12201
▁canc 7312
▁realities 7312
▁omega 7311
▁lat 7310
▁1991, 7308
▁concer 12887
presented 7301
bat 7300
▁bitter 7299
mont 7297
▁fishery 7297
▁observatory 7296
▁joe 7295
▁expo 7294
▁pred 7294
▁anna 7294
▁consign 7292
▁hs 7292
▁2018, 7291
▁disposable 7289
▁fertil 7289
▁maturity 7288
▁architects 7286
▁elite 7285
▁incompatible 7283
▁soy 10885
anning 7281
▁backing 7280
▁speeds 7279
▁dat 15028
▁carn 7277
▁corrosion 7276
▁physi 7275
▁(0 7273
▁searches 7272
5), 7270
▁hose 7269
▁analytics 7268
▁acqu 9403
then 7266
▁jury 7264
▁audits 7264
▁marvel 7263
▁capita 7263
vie 15336
▁escap 7261
▁motiv 13927
▁duly 7260
▁convers 7257
▁fox 7255
▁reorgan 7255
▁sculpture 7252
▁santiago 7252
▁ivoire 7251
▁impairment 7251
▁biology 7251
▁cereals 7251
▁insta 11403
conn 7248
▁83 7248
▁parliaments 7247
▁prerequis 7247
▁corps 43170
▁inches 7245
bing 7241
athers 7241
▁safer 7241
adi 11855
▁lad 7240
▁dawn 7239
▁enta 7239
▁(23 7238
▁pierre 12732
sector 7232
▁affir 7230
▁editorial 7229
▁tract 7226
cours 7226
▁radar 7226
spo 7225
parts 7225
ibly 7225
have 7224
lates 7223
budget 7219
▁tyre 7218
come 9964
ench 7215
▁malware 7215
eling 7214
▁theat 7214
▁latina 16899
▁accelerated 7213
ume 23139
▁helicopter 7211
)( 15455
▁airline 7209
▁statue 7209
▁replic 7209
▁prioriti 7209
▁appointments 7207
urable 7206
▁manu 7206
▁restor 7203
▁eritrea 7203
▁evange 7201
▁spont 7200
ogen 15722
▁neur 7199
▁consultant 7198
lord 7195
antine 7193
▁inappropri 7193
▁om 14378
▁instruct 7192
▁europcar 7190
compliance 7188
▁atten 12016
▁exhibit 7184
▁cellular 7184
▁rollers 7184
▁illustrated 7182
▁broaden 7182
▁finances 8187
▁counts 7181
▁velocity 7179
▁anne 7176
arc 11720
▁polyethylene 7175
▁expla 7172
▁eth 7171
control 7171
▁inflammation 7170
lac 7166
anto 14352
▁yugoslav 7165
▁mili 7164
▁donald 7163
isa 11726
▁illustr 7161
▁nord 70840
▁angles 7160
-1, 7553
▁bam 7157
gel 35782
aces 7150
▁personalized 7150
▁aggregate 7148
▁mach 8220
▁disclose 7147
▁stabilization 7144
ude 10830
▁mapping 7142
▁perpet 7142
▁mum 7141
ø 7139
▁vaccination 7139
▁70% 7139
▁interfer 7138
▁interactions 7137
▁collector 7135
▁marx 7134
▁cholester 7134
▁wallpaper 7133
▁advancing 7132
truc 7132
▁(38) 7672
▁meas 7131
▁editing 7131
▁socket 7130
▁carlos 7128
▁chips 7126
oman 7124
▁beha 7122
▁1982 7144
ppy 7122
▁democrats 7120
sign 7118
pd 7118
▁rolls 7115
▁flor 11883
-13 7112
00) 7112
▁verse 7111
▁crude 7111
▁oct 7109
▁bridges 7105
▁shine 7104
▁60. 7102
▁(- 7102
craft 7101
▁versus 7101
▁chapel 7101
▁refuge 7099
tos 19295
▁gm 7093
▁cardiovascular 7093
▁doha 7092
▁pac 10594
▁stol 7089
▁drain 7088
pie 10072
▁confron 7086
▁compensate 7085
:15 7360
pap 7081
▁nail 7081
▁spark 7080
▁vaccines 7079
▁emerge 7074
▁contaminated 7074
dl 7071
▁cp 8286
nis 22702
▁uzbekistan 7068
▁toxicity 7065
spr 7064
ength 7063
▁troubles 7062
▁marty 7062
▁dor 14177
cir 12323
▁croatian 7060
▁ethylene 7059
fam 7059
ughter 7059
alline 7058
▁yard 7057
mr 7056
▁provo 8836
▁hus 7054
▁pipeline 7053
▁verif 7052
▁emails 7049
▁chaired 7047
▁consolidate 7046
▁descriptions 7041
▁binder 7040
▁accreditation 7039
▁opt 7037
▁(100) 7376
▁subsid 7036
▁hesitate 7035
idity 7035
▁embro 7034
:5 7218
nas 7031
▁unc 7030
▁princip 7023
fri 7023
md 7020
▁preserving 7020
dition 7019
▁1983 7525
▁1979 7440
▁fran 7015
▁duplic 7009
▁brus 7006
▁simon 7006
job 7006
▁translations 7006
▁convin 7005
apping 7003
current 7001
▁goth 6998
▁corners 6998
▁pt 7094
tha 6994
tures 6993
▁189 6992
▁facto 6991
▁negli 47615
3.1 7267
▁counting 6990
▁secular 6989
▁probability 6989
▁comb 9625
▁mauritius 6986
▁nom 61886
▁5.1 6986
▁ds 7570
ow 6983
ias 18628
▁confisc 6979
▁recruit 6978
▁knit 6978
▁ampli 11815
japan 6976
▁sandy 6975
▁habit 6974
frame 6974
▁modi 13061
fc 7806
▁validation 6971
▁anc 6969
▁subordin 6968
▁lago 17442
▁licensed 6967
vio 6966
partic 6965
▁predec 6961
▁excl 6961
▁contex 6958
▁decid 6956
▁appropriately 6956
▁accum 6954
▁pollutants 6953
▁pav 6952
▁nur 165001
▁lcd 6951
▁portrait 6951
▁contacted 6950
risk 6949
▁filing 6948
phys 6948
dumping 6943
▁indic 10010
search 6942
-2- 7907
▁identifies 6935
jong 6934
▁dj 6934
▁upgrading 6933
management 8231
▁ours 6931
:19 7411
immunoglobulin 6931
01. 7109
regard 6925
▁sect 6925
▁sanitary 6924
▁merit 6922
nom 7494
▁(3, 7914
▁(10, 7385
▁genes 6917
▁decreasing 6916
20. 6916
▁55. 6916
▁15- 6916
▁kal 11409
▁reaffir 6916
▁setup 6916
▁bil 10556
▁sib 6911
▁induced 6910
▁fossil 6910
commerce 6910
eing 6909
▁nylon 6909
umps 6909
activity 6905
▁compressor 6905
▁elegan 6904
tail 6904
▁drafted 6904
▁vegas 6903
▁dies 72801
▁yu 6898
hos 6898
alth 6898
cific 6897
fig 9328
▁ou 680458
drop 6895
anne 12835
▁bened 6894
cli 7816
▁bmw 6890
wl 6889
iry 6888
▁abstentions 6888
town 6887
▁syner 6885
▁descent 6885
▁alternate 6883
rite 6883
▁appropriation 6883
itors 6882
▁metabo 6880
▁distrib 6878
▁symmet 6878
9), 6877
fm 6877
olution 6877
▁(27) 7367
▁istanbul 6875
nic 6874
▁injus 6872
▁harden 6872
▁snap 6870
rage 15591
▁methodologies 6867
▁gbp 6866
▁ea 6864
▁fragile 6863
▁radially 6862
▁alk 6856
treated 6855
10. 6854
▁medications 6854
pace 6851
eks 6850
-14 6848
vors 6848
:59 6847
▁dispersion 6847
▁marie 8554
▁intentions 6847
▁animation 6846
iva 35399
coun 6844
▁illustration 6843
▁ether 6842
▁prote 15719
eria 10300
▁exploit 6840
▁intimid 6840
▁cis 6840
▁$5 6839
onies 6838
user 6837
▁mich 46462
▁kor 9878
▁gorge 6837
▁rf 6837
▁fs 6834
▁infusion 6833
grade 6832
▁nr 46722
-16 6831
/2012 7091
▁prohibit 6829
rome 6829
/2005 7025
untain 6827
▁9: 6826
velop 6826
orize 6825
business 6825
▁milli 6825
▁philosoph 6825
idi 27832
▁switched 6823
▁horn 6822
▁diff 9565
dri 6816
▁51. 6816
▁pam 6815
▁foil 6814
▁inad 6814
▁calories 6813
▁aforementioned 6813
cribed 6811
▁excellency 6811
/15 6806
▁assemblies 6806
put 6804
▁alpine 6804
▁diffusion 11813
▁distances 6804
▁lett 6803
▁contractors 6800
▁receptor 6800
▁miracle 6799
▁chem 7041
gia 20302
plus 8904
/2011 6877
▁missile 6795
oso 61293
uni 26604
tici 34306
media 6793
▁● 8590
▁detri 6784
itated 6783
▁clearing 6781
dar 13847
.12 6779
▁joints 6777
▁streams 6776
lings 6775
▁prosper 6774
uler 13439
/2003 6780
▁gol 7817
▁keywords 6773
carbon 6772
ored 6771
▁rush 6770
▁publisher 6769
▁circul 6769
▁coopera 6768
▁arrow 6767
esome 6765
▁inevit 6764
cry 6761
▁examinations 6760
pent 6760
▁jim 6757
▁orch 6757
▁constra 6756
▁dubai 6755
▁evo 6754
▁saul 6754
▁bureaucra 6753
▁therap 6752
pas 18002
▁zurich 6749
▁reasonably 6748
▁eli 7842
ride 6746
▁inhibitor 6745
gene 6745
▁nc 6745
▁suppose 6743
izer 6743
▁duct 6743
▁tungsten 6742
▁aug 6742
▁gren 6740
▁triangle 6738
enness 6736
▁prosecu 6736
▁stal 6734
/2007 7038
▁deci 10506
▁calculations 6731
▁machining 6728
chain 6728
▁52. 6726
▁heater 6724
ester 15001
▁qualify 6722
▁conc 18776
▁inex 6720
▁dun 9205
▁telecom 6718
▁delta 6716
▁complain 6715
▁supers 6713
▁4.5 6713
▁cycl 6711
atta 20300
▁♫ 6710
▁fastening 6709
▁beams 6709
.9 6708
▁esp 29530
antage 6702
▁mem 7024
▁infrared 6699
▁melting 6699
▁poster 6698
▁(60) 7115
▁prolet 6695
▁guideline 6695
▁celebrity 6690
▁coding 6689
▁(12, 7105
inten 6688
.7 6687
▁smartphones 6685
unts 6685
▁broadcas 6684
▁harmonisation 6684
anta 19970
rass 6680
▁1950 6679
prote 6678
▁interf 6678
▁lodge 6677
▁accumulation 6671
▁biotechnology 6671
▁spect 6670
▁prover 6670
▁subscrib 6669
▁gos 6669
▁hits 6668
▁accessing 6668
▁tru 8741
▁quarterly 6664
▁confess 6664
▁(44) 7119
▁pand 6661
▁este 291961
« 15824
2% 9528
speaking 6657
material 22604
▁mare 39539
itant 7067
▁incoming 6650
▁paraguay 6650
black 6649
▁perfection 6648
lev 9858
▁imposition 6647
▁utilizing 6646
▁21: 6646
▁%. 12918
▁18: 6642
▁clas 6641
▁vegetation 6639
▁histori 6638
▁bott 6638
stan 6637
▁pear 6636
jet 6636
▁condens 6635
▁vas 14549
▁rhythm 6633
rets 6632
▁livel 6629
▁wol 6624
▁synergies 6622
▁benchmark 6622
▁1981 6898
▁antibodies 6620
▁franco 11046
▁lithium 6616
▁strasbourg 6616
1: 6710
haus 20909
▁conveying 6615
whe 6614
▁euratom 6614
▁oli 10833
▁describ 6613
aca 13410
▁harness 6609
▁pins 6609
▁concentr 10561
▁della 1099173
▁susp 6608
▁granada 6657
pens 9018
hire 6602
agon 6599
erst 13596
▁residue 6598
▁emergencies 6597
five 6597
▁trap 6596
▁superb 6595
ange 18906
▁residues 6593
cci 20267
▁resorts 6592
▁donations 6592
▁hazards 6587
▁envelope 6586
▁simultaneous 6585
▁cem 6585
▁browsing 6584
▁deform 6584
▁popu 6583
aks 6581
▁contractor 6580
▁textiles 6578
▁kin 6578
▁mongolia 6576
xic 6576
hea 6573
orian 6573
▁excursions 6571
▁selectively 6569
urn 6569
▁ambient 6568
enced 6568
uration 6567
-25 6566
▁1/2 6575
▁] 6565
▁accessory 6565
▁serv 18196
cope 6564
▁slim 6563
▁20: 6562
▁beans 6561
▁offline 6561
▁woven 6559
▁thre 6557
▁og 6556
ector 6555
▁frequencies 6553
edy 6551
kov 6550
hot 6549
omed 6548
▁voyeur 6545
tour 10133
▁bangkok 6539
▁patents 6539
▁bloom 6538
▁filtering 6537
▁leo 6535
▁nour 6535
▁fro 6533
▁boutique 10773
▁pasta 7621
▁correlation 6529
qui 13447
▁basketball 6528
mu 7190
prop 7134
▁euchar 6524
lass 9650
▁dealers 6522
▁unif 6521
▁tan 44886
▁interrog 6936
▁victor 6518
imo 19687
▁dump 6518
nov 7370
▁impro 6515
▁affirm 6515
fil 22248
▁β 6511
▁confederation 6508
jud 6508
▁quit 6507
▁turbine 6507
▁liechtenstein 6506
▁bran 6504
▁cherry 6504
▁_ 6503
▁reun 6585
▁phosphor 6502
▁placebo 6502
▁disrup 6498
▁syno 6497
▁encoding 6497
▁harves 6492
▁lesser 6492
▁furnace 6492
▁console 6492
▁dressing 6491
▁resilient 6491
▁ist 1109817
▁administering 6490
▁vpn 7169
habitat 6487
▁hazard 6487
▁2.2 6486
▁solemn 6486
▁reinforcement 6485
▁sv 13904
▁caps 6483
▁imped 6920
stu 6481
▁jamaica 6477
▁compos 10104
▁tribun 6477
▁relie 6476
isla 6476
▁phara 6475
aster 6474
▁absent 6473
four 6471
quin 6581
reli 6471
▁dynam 6468
▁ft 6466
▁kits 6465
▁burst 6465
▁vio 10521
ause 6464
▁ari 6656
▁450 7023
▁acquiring 6463
▁06: 6462
▁titan 7388
▁quartz 6462
▁bulg 6461
▁strand 14035
canada 6461
▁samuel 6460
▁amaz 6460
pain 6460
web 8475
ologically 6458
euro 18051
far 7724
▁sque 6455
change 6455
▁adhes 6454
▁(10). 6453
▁blades 6451
▁tang 6451
phen 7327
izable 6449
arbit 6449
boards 6448
lat 6448
▁distributor 6446
▁pn 7808
kle 17436
▁chef 23407
▁fier 6445
▁clima 19988
:16 6443
▁ot 7203
▁202 6440
▁privile 6439
▁demonstrations 6438
rec 6437
▁hunt 6436
news 6436
▁cologne 6434
oa 6432
▁designate 6432
abs 7811
▁carbo 6431
redited 6428
▁sanctu 6428
▁equip 6427
▁perfor 8444
▁sen 16882
▁sav 6429
▁optimize 6424
▁phosph 6424
wc 6422
▁pag 38916
▁propriet 6421
▁orbit 6420
▁pharmaco 6419
▁remainder 6419
▁leon 6419
▁sandwich 6418
▁(4), 6418
▁53. 6415
▁marri 6413
teries 6413
▁sacra 6412
imm 6412
▁deno 6412
▁upstream 6411
▁), 6411
▁simplic 6410
▁html 6408
▁perme 6407
▁debut 6407
▁arctic 6403
▁tibet 6402
▁mins 6401
▁nerve 6400
▁suppor 6394
opath 6393
▁rang 14370
▁bret 6392
width 6392
▁variant 6392
▁acetate 6390
dad 18794
▁periodically 6384
▁fortuna 6381
▁consume 6380
step 6375
▁elevated 6375
▁rene 6374
▁fortune 6374
▁pastor 6370
▁baseball 6370
▁modul 6564
▁stipulates 6370
wall 6369
atori 59077
▁switches 6368
dium 6425
resses 6366
▁toe 6364
▁spam 6363
▁ore 47598
▁scienti 6362
bet 16033
ente 137211
avail 6357
▁ghost 6356
self 6355
dynam 6353
▁cens 6352
▁quest 30313
▁nova 6350
essions 6350
▁kas 7966
▁expulsion 6347
▁pandora 6346
driven 6346
▁connectivity 6346
▁gastronom 6346
▁incredi 6345
eping 6345
▁patriarch 6345
▁elder 6345
▁appreci 6345
▁plante 11554
▁psycho 6340
▁sag 8018
▁applic 6339
▁230 6453
▁+49 6337
▁depor 6337
▁1993. 6337
001 6337
▁nurses 6336
mix 6335
pg 6333
iro 6327
▁removable 6326
▁distribut 6325
▁deta 6324
▁ae 6321
▁sahara 6318
▁axially 6317
2: 6557
▁brick 6315
phic 6314
otide 6313
▁bubble 6312
▁ende 51392
kel 11890
▁incomplete 6311
▁evolving 6311
los 55107
▁oppose 6309
▁galler 6308
▁whis 6306
▁hydrocarb 6306
▁conception 15462
tas 18278
▁comprehens 6304
▁notable 6300
abe 17439
▁scrutin 6299
histor 6296
▁bolt 6295
ental 6294
▁54. 6293
▁org 6293
due 6292
▁colo 6291
▁coral 6291
reas 6289
▁displa 6288
▁ukrainian 6286
ringe 6285
aff 18880
▁chrom 6285
ifying 6283
ulin 6283
▁mall 6283
ystem 19335
school 6282
▁perce 6281
▁faso 6281
▁colom 6281
▁zoo 6279
def 6279
▁verona 6279
▁levi 6278
▁academ 6277
etus 6276
▁efta 6275
▁determin 10431
▁105 6274
▁subsidiar 6272
▁hydrocarbon 6270
▁forwarded 6269
▁lag 8550
▁wc 12940
▁bending 6267
▁clutch 6264
▁mitigate 6262
▁pie 18254
▁phenyl 6257
▁iss 6256
▁inhal 6256
hib 6255
▁harmonized 6253
dose 6253
▁shaping 6253
▁bearings 6253
▁hay 100954
▁(4). 6249
▁extracted 6249
▁tak 6248
umin 6244
▁incorporation 6244
▁curs 6243
▁traces 6242
special 6240
▁hospit 6239
▁cushion 6239
"? 6239
tore 19666
▁polymers 6232
aw 6232
▁diversification 6230
ube 7587
▁stamps 6229
kia 6229
▁redund 6229
fting 6228
▁whe 6227
ften 11897
▁necess 6224
▁cv 6223
▁ate 6223
▁[1] 6222
cur 6222
▁axle 6221
kins 6220
aming 6219
rogen 6219
▁dm 6218
▁enac 6218
▁synth 6217
▁elaborate 6217
▁5) 7226
▁migr 6451
▁blast 6215
atal 6213
▁thermo 6212
▁elec 6211
▁xvi 8041
▁insolven 6207
omb 6799
50. 6202
▁dum 6202
▁relu 6201
▁sunset 6200
▁multiling 6199
▁rapporteurs 6198
erse 26696
itude 6198
quent 8988
▁commons 6196
▁transf 7654
▁ketone 6194
▁sf 14712
▁batch 6194
▁offensive 6193
between 6193
language 6193
▁compress 6191
▁miami 6190
▁buff 6190
▁hardcore 6190
▁commen 6190
▁verb 14585
▁endeavour 6186
own 6186
-17 6186
opp 6186
▁assumptions 6183
▁personali 17218
▁inorganic 6179
aud 7996
tp 6252
mens 8894
▁implic 10462
▁pond 6408
▁domains 6172
▁cruci 6170
▁capsule 6170
▁grams 6169
▁halt 6164
▁inj 6163
▁sau 13695
00, 6579
▁tras 50900
fast 6160
akers 6158
▁1.3. 7211
gious 6158
▁talents 6157
▁serbian 6156
▁molding 6155
▁19: 6154
▁altered 6154
▁dras 6154
▁fm 6153
▁madagascar 6153
uter 12717
boat 6150
▁speciali 14790
ctional 6149
nit 9072
▁blu 13887
▁inspectors 6146
olin 6146
▁mozambique 6145
▁diarr 6144
▁(4, 6875
“ 87926
▁exhibits 6143
▁objections 6141
▁). 6141
▁restri 6140
hin 13280
▁oxid 6139
▁horri 6137
▁3,000 6136
mitted 6135
uck 6135
aver 6134
▁broadband 6134
▁vapor 6134
▁naval 6133
/2010 6439
erstand 6131
cen 13007
-, 28883
▁56. 6127
stop 6125
▁feb 6124
gate 6444
▁ant 8459
energy 6122
▁$4 6121
▁dei 657554
germany 6120
▁pub 6119
▁5,000 6118
▁carboxy 6116
▁kyrgyz 6116
▁(52) 6616
▁insights 6114
▁protr 6113
▁planes 16452
tric 6112
▁porous 6110
lip 6110
ž 6108
comm 6107
sea 6107
": 6811
▁enclosure 6105
cano 6102
▁ark 6101
▁litig 6100
think 6099
▁chemo 6096
▁inaug 6360
▁illustrate 6095
till 6200
▁ket 6094
▁pod 8604
▁haem 6093
▁kam 17915
▁embodi 6092
▁effected 6091
▁{ 6088
▁bend 6085
▁crypto 6082
▁thrust 6082
minister 8782
▁immense 6081
▁starch 6080
▁linkages 6078
crip 6077
pho 6075
▁arres 6075
:35 6073
hrc 6073
▁denti 6452
▁workload 6068
german 6068
abilities 6068
▁ner 6067
▁1.4 6066
sil 6065
▁profitable 6065
lice 6063
▁versatile 6062
td 6062
truction 6060
▁charts 6060
data 6059
▁gali 6058
▁cardia 6058
▁cruz 14583
▁symposium 6056
▁interoper 6055
ellor 6054
illo 13755
▁enc 8874
▁calibration 6053
mits 6053
▁conduit 10127
▁browsers 6052
▁discontin 6051
▁volunt 6049
bacter 6048
▁reporter 6046
tero 13507
▁npt 6044
fsp 6043
/13 6042
▁bac 8798
▁deluxe 6041
▁greg 6040
▁sporting 6039
▁beau 7647
▁170 6037
▁simplification 6036
▁oscill 6036
oo 6033
▁consortium 6031
▁zi 6027
▁stim 10111
▁albert 6026
▁(10), 6026
fare 6025
▁holland 6025
▁adver 6025
▁authentication 6024
▁endeavo 6021
▁marke 8726
unters 6019
/2001 6017
▁riv 8469
▁heights 6017
▁plung 6016
aa 6066
▁exemptions 6015
▁pixels 6015
direct 6015
anges 6012
▁reporters 6010
▁adj 6009
▁glycol 6009
tish 6009
▁concession 6009
▁(26 6008
worth 6007
lay 6007
▁rival 6006
▁medic 6005
lemented 6004
▁sunglasses 6003
▁kett 6003
▁repla 6003
▁roy 6002
▁schengen 6001
▁materi 6001
30. 6000
pair 5999
▁creature 5998
incl 5997
▁fantasy 5997
▁sour 5991
▁1.0 5990
▁burkina 5989
linked 5988
▁prospective 5987
orb 7256
▁slova 5984
▁explorer 6325
▁pale 5983
▁pneumatic 5983
▁frus 5981
▁conduci 5980
▁107 5979
▁bargaining 5977
inder 7280
▁latex 5975
▁incar 6353
▁detach 5969
lee 5969
▁cous 5968
▁curios 5968
▁bir 8131
▁herb 5964
▁ord 9331
▁’ 7455
▁alum 5963
▁gangbang 5962
▁pesticides 5960
▁aroma 11585
▁disciplines 5958
▁prescri 5958
▁sydney 5958
▁trails 5957
▁identi 11275
thal 5955
▁leuk 5954
▁bracket 5953
▁stro 5953
quali 5952
guide 5950
▁aquatic 5947
▁pisa 5944
▁carton 5944
park 10185
▁adul 5942
▁disproportion 5940
▁(12). 5939
outs 5937
▁fork 5936
amide 5935
▁$10 5933
▁gateway 5932
▁ross 5931
▁grooves 5929
▁baroque 5929
▁insured 5928
▁astro 5926
▁preparedness 5925
▁kat 12990
▁mosqu 5924
shirt 5924
aph 5922
union 52613
▁distra 5919
...) 6660
▁bias 5917
▁digit 5916
phon 5916
▁shifting 5915
hab 9523
tub 5913
▁(33) 6483
▁sequences 5912
itar 23998
▁heter 5911
▁zambia 5910
▁gon 6412
▁premi 8205
▁favorable 10087
xxx 16658
▁advertisements 5905
▁challeng 5901
▁slides 5901
▁shri 5901
training 5900
▁reac 5900
▁1% 5900
▁1978 6004
~ 12074
▁prev 5898
▁cellulose 5897
know 5893
garten 5893
gg 5893
ulator 5891
▁immers 5891
hrine 5890
aux 76301
gor 7652
▁uranium 5886
▁spi 5885
▁precl 5882
.), 5880
/7 6503
▁stationary 5880
▁physicians 5879
uling 5879
alia 5879
▁(40 7160
▁scroll 5876
▁projecting 5874
:05 5874
▁diges 5873
▁59. 5872
quets 5871
employment 5867
hic 5865
ige 59594
istor 5864
▁banner 5864
▁que 4143121
▁obes 5863
▁deca 5862
▁invalid 5861
dio 11508
▁artis 7399
▁irrigation 5859
▁denomin 5858
▁58. 5858
ussi 5857
than 5856
▁pira 5854
▁presum 5854
▁viral 5853
▁louboutin 5852
▁nav 8792
▁ridic 5851
▁57. 5850
▁barrel 5850
▁extens 5849
▁sms 5958
▁ken 5848
▁fluids 5848
▁cartoon 5847
▁satellites 5845
▁geor 5845
▁commonwealth 5844
▁modernization 5844
▁hinge 5843
▁laun 5841
.10. 6228
▁appliance 5839
▁rug 5838
rag 12196
▁curri 5836
▁cairo 5836
▁associates 5835
▁likelihood 5835
zia 22297
▁triumph 5834
▁platinum 5833
bone 5831
▁namibia 5831
▁organise 5831
▁aro 5829
▁wires 5828
▁manus 5827
▁1975 6135
cet 5824
anth 5821
▁brochure 5819
omi 9308
▁etern 5813
▁turin 5812
processing 5811
▁0.00 5811
stra 9997
▁pulp 5809
▁1992. 5808
product 5807
▁semester 5806
▁wander 5805
▁epis 5805
performance 5804
▁aspirations 5802
▁fres 8344
isons 5800
▁wolf 5800
▁implant 5798
▁incumb 5797
gradu 5796
▁dissolved 5796
univers 8170
▁heroes 5791
order 5791
tom 8941
▁vom 150643
itu 9440
▁pharmacy 5787
charge 5785
mouth 5785
▁nodes 5784
▁inver 5783
entially 5782
▁polymeric 5780
▁communic 5779
inees 5778
▁xc 5778
▁hearings 5776
hum 7533
erv 6743
▁shiel 5773
▁recours 16382
▁± 6058
▁ful 5771
kar 11198
anos 30313
▁flora 5768
▁gil 5767
oration 5767
▁kon 29501
phere 5765
best 9735
ells 5763
▁apr 5949
▁kos 7409
▁attribute 5758
▁cater 5758
▁sacri 5757
▁recreational 5755
otes 5753
▁math 5753
lage 30609
▁redress 5749
▁rods 5749
▁24: 5749
▁das 1081738
mid 5746
/2002 5803
ometric 5744
▁shak 5744
angers 5744
olas 5743
▁1.6 5742
▁triang 5742
▁bluetooth 5738
tuber 5738
mind 5737
▁repar 6430
▁attemp 5737
rig 15061
phase 8432
▁filler 5735
▁corrections 5734
▁edinburgh 5734
▁composer 5734
▁café 16475
▁hob 5733
▁fog 5730
▁fried 5869
▁transpl 5730
▁unrwa 5729
▁dare 24081
western 5727
chos 8355
▁arti 6315
▁complic 9264
refer 5724
▁audiences 5724
▁„ 100574
▁buch 21040
▁boston 5721
▁beads 5721
ugar 5720
genic 5720
▁credenti 5720
▁québec 14935
▁phosphate 5719
▁beverage 5719
▁fen 5719
▁bco 5718
▁propaganda 5715
▁rocket 5712
▁tweet 5712
orse 5709
▁exempt 5708
▁regeneration 5708
ffici 5708
▁renaissance 5707
dern 19775
▁hypertension 5706
▁gau 5706
▁gum 5706
tron 10225
wait 5703
▁insist 5702
support 5702
kit 5701
redit 5701
▁manipulation 5701
▁multitude 5701
▁soli 16162
▁diagram 5699
casts 5698
eas 5697
▁separ 11428
burs 5693
▁pigment 5693
▁agro 5818
▁anthrop 5691
bach 5691
▁particulate 5690
▁infin 6157
umer 6477
▁spiral 5688
▁scr 5688
pons 5687
▁apo 9238
tiers 5684
irl 5684
keys 5683
▁mallorca 5880
identi 5722
▁exchanger 5681
▁alternatively 5681
4.1 6003
jack 5677
indic 6227
▁vigil 5676
▁5.2 5675
▁6) 6112
▁manipu 5669
▁startup 5668
▁(46) 6141
▁relay 5666
inn 14671
▁viet 5661
▁passages 5660
▁liv 9392
fices 5659
idal 5658
▁65. 5656
▁kitchenette 5656
pian 5656
hemale 5655
mitt 5655
.19 5655
▁sanc 5654
▁pref 5654
▁sarah 5652
▁bite 5652
▁(100 5652
▁infer 5652
onom 5651
▁kur 12096
▁marker 5651
▁mari 13693
▁stephen 5648
ologies 5647
/2018 5646
▁revo 5646
fes 16247
inas 27989
fac 5639
▁induc 5638
aki 5638
▁studios 5636
tiss 5636
▁polyurethane 5635
▁(60 5635
▁ral 5634
woven 5631
▁dh 5631
tho 5631
▁assa 5631
-2015 5631
▁shal 5630
▁vertically 5629
cture 5629
▁align 5628
▁cognitive 5628
▁snack 5626
▁conversations 5626
▁cottage 5625
▁nega 5624
▁vit 11650
itarian 5620
session 5620
▁immig 5620
▁cav 9122
▁dive 5617
▁hav 5617
ç 14633
version 9676
▁catering 5615
otage 5615
▁reco 9792
▁celebra 10498
▁bacterial 5612
▁35, 5610
▁innov 6580
▁basilica 5609
▁07:00 5609
▁aerial 5608
▁salmon 5608
▁fatal 5607
▁reproduced 5606
stein 6430
bot 5733
▁bypass 5604
orten 5602
▁auspices 5599
▁chal 5598
▁chaos 5593
▁luis 5592
▁revis 10595
▁antioxid 5587
tick 5585
▁protagon 5585
▁cod 5585
itan 7384
▁nun 32562
▁(197 5584
▁atlas 5583
▁1977 5614
:31 5581
▁resilience 5580
/65/ 5586
itali 5579
▁lump 5576
▁deduc 5575
leton 5575
▁aquaculture 5574
track 5574
▁phot 5573
▁asthma 5573
▁antivirus 5572
▁ey 5572
real 5572
▁bog 5569
bay 5569
equ 5568
▁reno 5568
dia 8776
▁marti 5566
▁concessions 5565
▁histor 5565
wheel 5562
xima 5561
▁terri 5560
▁rats 5560
▁epidemi 5559
▁nan 5559
area 17152
▁oem 5558
▁annul 5558
sid 5558
tet 30723
▁trader 5556
▁actuating 5556
eco 8991
install 5553
aco 13238
uls 12778
enz 28986
..." 5550
▁frontier 5550
▁fru 5548
▁ale 13605
▁adria 5544
tru 13571
illi 8311
▁discern 5543
ariat 5542
▁cage 5542
▁endure 5538
▁hes 5538
:04 5537
▁deficiencies 5536
▁feder 12567
zole 5535
▁clauses 5532
▁buddha 5532
▁killer 5530
▁hammer 5526
▁duplication 5526
▁jar 5524
▁gut 40395
gation 5524
▁angular 5523
vere 11157
bul 6238
▁monopol 5522
▁fines 17063
▁chassis 5522
▁inconven 5519
▁unops 5518
dings 5518
▁scott 5518
▁receiv 5517
▁deem 5517
▁medicament 5517
▁22: 5516
atinine 5512
▁sulphur 5512
▁biolog 6057
▁giovanni 12026
▁conciliation 5505
anol 6867
▁avail 5504
orters 5503
jour 5503
▁genre 12111
:02 5503
inian 5502
▁raid 5502
▁devast 5502
pressure 5501
▁soluble 5501
ancial 5501
foot 5501
▁mario 5501
▁torn 8774
:06 5500
▁pyram 5499
▁anatom 5498
▁drainage 5497
▁186 5497
▁hil 7235
▁notices 5495
▁categor 5495
▁constituent 10334
urate 5493
cepti 5493
▁elastomer 5489
▁peti 5489
icy 5488
▁pero 160585
:36 5484
▁rotational 5484
▁(28 5484
▁mug 5479
▁imprison 5479
▁paulo 5476
▁revise 5476
▁188 5474
eler 5474
focus 5474
▁induction 5471
▁ceram 5471
cuss 5471
▁[2] 5471
▁armen 5702
align 5468
utt 8985
judicial 5467
times 5467
arg 9847
▁wales 5465
▁pizza 5464
▁ric 17174
▁privati 10346
value 5463
▁floral 5460
minder 5455
▁alkali 5454
▁cumulative 5454
▁pretend 5454
▁dielectric 5453
▁pill 5453
acts 5453
▁referral 5451
author 5451
▁ry 5450
▁2.3 5449
▁capacitor 5448
▁corrective 5447
▁sei 51694
loading 5446
tribut 5444
usions 5442
jikistan 5442
▁colleges 5441
erial 5440
▁scot 5440
aggreg 5438
▁nad 6949
▁periphery 5438
▁nurs 5438
mage 5438
▁fc 5437
osi 38820
effec 5435
▁configure 5435
mad 5427
▁glu 5426
eman 5425
▁nl 5425
▁persist 5425
sal 12188
base 5423
▁ie 5423
▁contes 5419
▁moist 5419
▁dome 5419
▁vincent 5419
375 5563
vente 5417
▁grill 5416
lag 16533
▁intr 7379
▁05: 5410
hyd 5409
▁peptide 5409
▁spins 5409
▁delegate 5409
▁centi 5408
▁tomb 5406
▁(5, 6138
▁plum 5405
▁vap 5405
chan 5403
▁alkaline 5403
▁volatile 5401
▁manifestations 5401
.11. 5813
cco 8510
▁anton 5399
▁odd 5399
▁endurance 5398
▁oz 5398
▁32, 5964
▁trades 5395
▁sici 5394
▁cyclic 5394
arts 5393
▁railways 5393
mittee 5391
▁7.5 5391
gae 5390
▁pir 8898
zzo 16856
▁exacerb 5384
▁marbella 5384
:09 5383
▁wir 303448
▁62. 5381
▁dense 5380
▁cigare 5379
▁10/10 5378
range 5378
▁reacting 5377
▁recons 5376
▁gauge 5375
▁scanner 5374
▁cafe 5374
▁hemis 5372
holds 5371
▁approxima 5370
▁wien 11237
▁exporters 5369
▁inspect 5368
etti 23021
▁vir 7687
▁0,00 11305
▁interfaces 5367
borne 5366
▁circumfer 5365
▁vial 5365
▁petrol 5364
▁185 5363
▁ans 103334
▁vancouver 5360
▁ece 5360
▁pf 14842
ffe 12812
ardo 8197
▁bondage 5357
orth 5356
▁affair 5354
▁bt 5354
▁appla 5351
▁patio 5792
▁61. 5349
jes 15665
rings 5347
▁ergonom 5346
▁emulsion 5345
sim 5345
otypes 5344
/2000 5344
▁(11, 5750
▁4.0 5341
:37 5341
▁champagne 5339
▁specialty 5339
▁calib 5767
▁tot 5338
▁tb 5338
hof 10471
▁tuning 5337
olu 9065
▁1989, 5336
metal 5335
nel 25997
prises 5332
▁hug 5331
▁fon 12539
▁telesco 5329
hydr 5325
▁bale 5323
▁depar 5323
feld 18282
▁fragment 5319
▁\ 8035
▁bonded 5318
▁rif 5816
orative 5317
▁threaded 5317
▁fal 10957
ghts 5314
▁robo 5313
▁destruc 5312
pira 5312
▁hormones 5311
hang 5310
mming 5310
▁ambi 7153
▁trig 5308
▁dash 5308
01, 5306
notes 5306
▁rotterdam 5306
▁illustra 7742
source 5305
▁lyn 5304
▁terminology 5304
existence 6906
▁erup 5304
▁indones 5304
▁grains 5300
▁jok 5300
▁jeff 5300
nor 6484
onders 5292
▁catheter 5292
-02 5292
▁cylinders 5291
▁lace 5291
▁cul 13322
▁chron 6362
▁traff 5287
aired 5287
▁courtes 5285
▁elizabeth 5284
sy 5284
▁rests 5278
▁amb 7175
:58 5278
trade 5277
▁distal 5277
▁nordic 5277
▁cant 9734
▁jurisdictions 5276
▁span 5275
▁confrontation 5274
▁candy 5274
ems 5274
▁3.2 5273
▁registers 5272
▁dissol 5270
▁administer 5270
▁catalytic 5267
price 5266
▁jackson 5266
▁relieve 5265
▁justif 5264
obs 5264
dg 5263
▁(29) 5657
color 5260
▁sac 23165
▁playback 5260
▁dock 5259
▁castel 5259
▁acquis 9899
iche 58875
atorial 5258
▁hind 5257
zone 11136
▁2% 5256
/18 5256
▁transporting 5255
lor 6401
▁penn 5254
▁escort 5253
▁appren 5252
emo 17190
▁2019. 5250
▁axes 5250
:38 5250
dm 5250
estos 5249
vd 5249
▁6- 5247
▁debian 5247
pless 5247
▁patron 5246
dre 5245
▁muscular 5245
▁1976 5543
▁champions 5244
▁ware 5244
▁zion 5239
▁robots 5239
▁argentine 5238
:07 5236
▁sony 5236
▁fluctuations 5236
▁103 5235
▁illumination 5234
vation 5233
-24 5232
cate 5231
.198 5491
▁beeg 5228
▁(5). 5228
lower 5227
rants 5225
osh 5224
▁alt 22678
agg 5223
▁bicy 5222
lit 10393
2000 24744
▁trim 5220
uti 33359
-06 5219
▁brom 5219
▁dell 639701
▁ultras 5219
▁javascript 6242
:39 5218
▁pharma 7071
▁bee 5216
▁sanction 5215
▁benin 5214
▁exer 5213
▁laminated 5213
▁upornia 5212
▁(0. 5212
ional 5212
▁hyd 5212
▁asc 5211
▁jour 75249
halt 8830
▁0.01 5206
▁psycholog 5202
start 5202
▁alberta 5202
▁4.2 5201
exper 5201
▁api 5665
ubs 5196
▁stuttgart 5196
▁coupon 5196
uto 28641
opol 5195
▁rever 5193
▁conceptual 5193
▁cigarettes 5192
▁allocations 5191
▁(35) 5546
▁siena 5190
▁valentine 5189
▁ath 5189
▁2.4 5189
:03 5188
xp 5187
▁biography 5186
▁coron 5198
▁»» 5186
▁rss 5186
▁reactive 5184
▁prud 5184
▁poses 5183
.] 8505
▁bonding 5180
0% 5180
:57 5179
▁merci 20091
▁conjug 5178
▁(12), 5178
voc 5572
coup 5178
norm 5176
▁purs 5176
▁veneto 5175
contact 5175
▁editions 5175
▁mixer 5174
▁inspire 5173
:08 5173
▁inqui 6529
▁departmental 5171
door 5171
▁cone 5171
aken 5170
▁polypeptide 5169
store 5165
mous 5165
▁cnc 5164
▁trinity 5164
john 5163
▁liturg 5162
▁extin 5161
environ 13093
▁pennsylvania 5160
▁subscriber 5160
▁obsc 5158
▁depos 6506
uen 17433
▁intri 5155
▁aaron 5154
▁instrumental 5153
▁auth 5152
liers 5151
ulent 5151
▁ala 7249
!” 5149
meter 5144
del 11524
thesis 5142
▁bour 6334
▁rendering 5141
▁marino 7781
▁nau 5140
▁bahrain 5140
▁morph 5139
19, 5139
▁taliban 5139
▁115 5138
▁⇢ 5139
acrylate 5137
▁64. 5135
backs 5134
ologic 5133
europa 39894
aci 12361
▁malnutrition 5132
tto 19293
▁purification 5131
▁argu 5129
▁cot 5129
▁median 5128
▁(14, 5455
▁cult 5127
▁prostate 5126
▁andalus 5125
atur 17615
2018 5981
▁ign 5122
▁blas 5122
amin 7872
engers 5121
temp 7383
▁steve 5120
tock 5118
:32 5118
feb 5115
▁influ 13450
▁jeans 5114
pil 5113
uno 15728
▁harry 5111
▁niger 5111
▁intens 9222
▁erosion 5110
▁carav 5110
edo 5109
▁fairness 5108
rono 5108
▁subjec 5106
▁(27 5106
▁sculptures 5106
isti 30052
▁streaming 5104
▁stre 11884
stock 5101
▁regulator 5098
4: 5227
▁maastricht 5096
▁qualifying 5095
▁arro 7235
2.2 5094
esse 28910
olutions 5093
antages 5091
crib 5091
▁lane 5091
rac 5091
gli 28325
onn 8403
hom 5594
▁url 5087
▁bonn 5087
▁bod 5086
▁cerv 5086
ento 21005
▁clusters 5084
tein 10798
unes 6442
▁identifier 6367
/16 5081
:34 5081
▁→ 5221
/57/ 5080
▁106 5080
zhou 5079
die 48437
▁glori 5077
▁clar 5077
▁viewer 5076
▁cerem 5075
▁63. 5074
sun 5074
▁virginia 5073
ín 25310
aser 5073
gam 5073
▁nets 5070
orph 5069
▁rud 5068
▁gef 11335
▁merch 5068
unda 5066
▁freezer 5065
▁gs 5065
▁3000 6773
kine 5064
▁parade 5063
▁maison 38033
▁hollywood 5062
▁italia 65690
▁brun 7519
▁acet 5058
▁proto 8268
▁(6, 5701
▁terres 12301
toxic 5054
▁inno 5516
/01 5160
▁disposition 19055
▁3% 5052
atten 14158
▁119 5048
zers 5048
▁morocc 5046
double 5046
rer 19641
▁108 5045
favo 5045
db 5045
▁polypropylene 5044
▁underg 5044
▁len 9517
▁α 5043
▁guar 7476
▁prima 130930
nos 22384
:56 5038
dig 9531
technology 5035
▁feeds 5034
bands 5033
▁66. 5031
▁vitro 5030
▁exquis 5028
▁vocabul 5028
▁northwest 5028
▁balkans 5025
rier 11484
▁amplitude 5023
▁approves 5023
▁zen 5022
▁vain 5022
▁webs 5021
▁lima 5080
▁emig 5020
▁behavi 5020
▁vibrant 5019
▁respon 5017
▁lav 15442
▁dispensing 5016
▁botan 5015
▁snacks 5013
:33 5012
▁collater 5010
▁romance 5009
▁aler 5006
▁240 5262
apart 5004
rons 8664
ione 44070
▁spindle 5001
titu 7141
quet 6685
▁thres 5000
▁95% 5000
▁ignition 5000
▁transformer 5000
▁750 5604
▁corridor 4999
video 4997
titutes 4996
▁constituting 4995
gc 6263
▁1973 5573
:55 4993
▁defens 4993
piration 4993
▁34, 5820
production 4992
▁stimulation 4992
▁palermo 4988
rically 4987
▁amnesty 4986
entia 4986
▁appro 9162
▁inqu 4983
▁turb 4983
▁ethyl 4983
▁§ 6177
▁oxidation 4982
▁ced 6307
▁missiles 4982
▁problema 68774
chy 4981
▁utilities 4981
-04 4981
▁backpack 4981
▁marc 12864
▁microbi 4979
oz 5286
▁immort 4978
▁administr 4977
▁barb 4977
▁$1. 4975
tox 4972
▁plur 8011
▁bru 8834
▁kurd 4969
▁(5), 4969
▁culmin 4969
▁70. 4968
▁187 4968
▁ammonium 4968
▁devis 4967
ulf 6042
zio 14863
▁hitler 4966
▁inhibitors 4966
▁swap 4966
▁heli 4966
▁incre 4965
phthal 4964
▁sensation 4963
gies 4962
▁prestige 4962
▁professions 4961
▁header 4961
▁lyon 4959
▁reflec 4959
▁flip 4958
▁turbo 4958
▁extern 4956
,, 8332
▁pontific 4955
plane 4954
▁terti 4954
▁palazzo 11186
▁urin 4951
tw 4951
▁miguel 5010
vert 4950
wire 4950
/14 4950
▁sulph 4950
▁marin 6209
forming 4948
ctu 4948
▁silica 4948
▁bovine 4948
team 8637
(5) 4946
angle 5240
▁hen 4945
▁irreg 4943
▁proportions 4943
▁precursor 4942
acle 4942
super 4940
otrop 4940
.8 4939
ims 4938
▁pedro 7660
figure 4937
▁cred 4937
vy 4936
▁proactive 4936
▁packs 4936
oglob 4935
▁ambition 4935
▁za 8275
amino 5306
blue 4934
meth 4933
▁ave 5869
▁piercing 4932
kon 23654
▁thunder 4931
▁flux 13641
ethylene 4928
ilion 4928
atable 4928
▁perf 6977
▁excav 4925
▁gt 5126
▁elong 4924
▁inflamm 4923
tico 81825
bury 4922
▁microphone 4921
3: 5201
thes 4921
aga 8456
/19 4920
▁hop 4919
▁anima 8073
usta 6479
▁johnson 4917
▁spic 4917
▁recharge 4917
▁crush 4916
moon 4916
▁reve 4916
▁bean 4916
▁transboundary 4913
ote 10495
gian 4911
▁instal 9641
▁isaac 4910
▁muhammad 4909
▁1990. 4908
▁carolina 4908
▁lp 4906
▁ef 5547
▁wang 4904
ime 7100
▁cube 4903
▁envoy 4903
ough 4903
▁elongated 4902
setting 4900
▁milano 16689
▁dependen 4899
▁amor 27950
gem 16572
lad 8662
▁%, 11972
▁carl 4894
▁pec 12674
▁outlines 4893
▁210 4893
utor 4890
▁wells 4889
▁pads 4888
usts 4887
▁arthritis 4885
iller 10373
▁pulses 4881
▁moulding 4880
nm 4880
▁brutal 4880
▁vor 360885
sing 4879
▁jacques 4879
▁verde 31296
▁habitats 4878
▁chess 4877
▁traction 4876
yr 4876
nominal 4873
fortable 4873
isen 10012
flower 4872
show 4872
▁declar 6488
▁deutsche 11810
▁adobe 4871
▁(41) 5268
▁nederlands 4869
▁andrew 4869
inch 4869
▁alli 4869
▁pulmon 4868
cke 8481
▁nazi 4866
▁pendant 68704
▁pleas 4865
▁1500 5458
▁ego 4864
▁haitian 4864
▁nh 4862
missions 4862
▁marketplace 4860
▁merchand 4859
▁75. 4859
▁lig 8079
center 4857
▁petro 5437
▁marginal 4856
cytes 4856
tip 4856
▁agri 4855
▁integer 4855
▁subreg 4854
cb 4854
▁rota 5059
▁magni 4853
▁07: 4852
▁promo 16128
▁terrain 14791
phor 4851
▁haw 4850
▁impartial 4849
▁fragments 4849
▁progression 4848
▁pom 9129
▁unsaturated 4844
live 4843
▁huawei 4842
▁2). 4840
xt 5122
▁merchant 4839
/59/ 4883
▁carlo 5127
▁ritual 4835
▁kl 10657
personnel 4833
▁(54) 5190
▁yuan 4830
▁subtra 4830
▁interchange 4829
▁manchester 4825
iven 8187
▁panorama 10182
boo 4823
▁69. 4823
rance 4823
currency 4822
▁1-2 4821
stri 4821
▁ach 13662
stage 4820
▁genital 4820
▁antique 4819
▁squad 4819
▁ling 4818
▁caus 16862
inist 4817
▁(31 4816
bene 9733
▁tilt 4814
▁plann 4813
▁liner 4812
▁bub 4811
"), 4811
▁99. 4810
eme 7772
▁flap 4809
▁engages 4807
amed 4807
oxy 6332
▁edward 4805
▁karl 4802
▁fili 13158
▁ecc 28824
isten 24212
▁burner 4800
gos 12726
isi 8246
rar 10551
▁explos 4799
▁ν 4799
▁nich 8852
▁viscos 4796
▁consolid 7446
enia 4795
▁(...) 5435
fluor 6802
▁ions 4792
▁indul 4792
tible 4792
▁lymph 4790
▁registrar 4790
▁ransom 4789
▁pst 4789
▁indiffer 4789
avor 4788
▁enzymes 4787
▁inde 9566
▁absorbent 4785
/24 4785
nut 4784
jun 4784
▁(20, 4988
▁104 4783
▁sis 6115
▁transducer 4781
▁leonardo 4780
▁unite 9600
-03 4778
▁oriental 11016
▁seq 4773
▁jones 4771
▁helsinki 4771
-09 4767
rea 12056
▁albums 4765
▁hab 20187
colo 9173
▁cessation 4764
▁aller 45645
dict 4763
▁128 4762
▁123 4761
▁decol 4758
▁sham 4755
▁carbonate 4754
▁vib 5020
▁dilu 5263
▁torre 12383
amer 11021
▁fasc 4749
▁quer 18932
▁immo 4749
▁sterili 4749
▁singles 4746
cad 6845
brow 4742
▁dens 4741
▁manuel 11154
shine 4740
▁sup 7779
▁europa 112398
▁philippe 4739
▁fdi 4739
force 4738
gery 4738
ï 24542
▁psychic 4737
agu 4736
00. 4788
▁humil 4734
annex 4733
▁bourgeois 4733
▁acqua 23963
▁statis 4757
▁75% 4732
▁affiliate 4732
hex 5104
▁priva 4925
▁donate 4731
▁sacrific 4730
▁reflective 4730
▁championships 4729
▁sterling 4729
▁mart 4728
′ 4727
▁energe 4727
▁intact 4726
▁reel 4725
▁unpre 4725
ington 4725
▁ambigu 4725
▁2003/ 4725
▁hyp 4724
▁bec 7953
heet 4723
hyde 4721
▁toner 4719
▁cerebral 4718
chris 4717
▁brid 4716
▁grie 4716
/2019 4715
▁porcel 4714
agger 4714
download 4713
▁ia 4711
▁brace 4710
▁diego 4710
▁pow 4710
asis 4710
▁assistants 4709
▁1.8 4708
▁intercultural 4708
▁gab 23901
▁tunis 4705
▁segreg 4704
▁pots 4704
▁incorpor 14488
dep 4702
▁lang 27736
▁rosa 15749
▁supervisor 4701
▁abdominal 4700
yst 4699
▁yun 4699
▁diaphrag 4698
▁carto 4698
▁playl 4698
▁junction 4697
▁67. 4697
-2019 4697
▁menus 4695
▁confession 4695
big 4695
▁aper 5039
▁evacu 4692
▁ambul 4689
▁env 5828
▁pile 4688
▁atro 4687
pts 4687
wave 4687
▁caffe 4686
▁adolescent 4685
▁inaugur 4685
▁therefrom 4684
oter 4684
unge 5428
▁requis 7159
▁convinc 4683
▁reins 4682
▁ure 4682
▁lime 4682
ão 4679
▁tony 4679
▁imo 4679
rating 4679
▁importer 4679
▁nomination 5216
beit 4678
▁veterans 4677
▁coll 5394
▁visas 4677
▁accru 4675
▁reconsider 4675
▁politici 11331
arks 4671
▁malawi 4671
cend 4671
especial 4671
poly 5414
9.00 4670
▁(6). 4670
dh 5797
▁institu 6050
▁quin 5817
▁burg 4668
▁hau 6455
▁solv 4667
▁jaw 4666
▁dv 4666
▁append 4666
▁halloween 4665
▁clips 4664
tition 4664
▁reproduc 4663
▁zu 1155873
▁kab 8373
9,00 7651
▁ambass 4661
▁dp 4661
mond 4660
▁skype 4659
▁12:00 4655
▁7) 5101
▁tex 7164
▁spacing 4653
▁phrases 4653
ficits 4652
0000 5451
eni 7584
▁emitted 4648
▁kan 13023
interpretation 4646
enne 33818
zel 5141
▁melod 4640
▁guardi 4640
▁recep 4638
▁cutter 4638
▁modulation 4637
sey 4636
▁fred 4636
lore 4636
▁esters 4634
bissau 4633
▁33, 5259
▁osce 4632
▁assurances 4631
.16 4630
phal 4629
▁evapor 4629
▁horror 4628
▁(48) 4922
▁diploma 5558
▁defec 4626
kr 10198
iate 7078
accord 22117
▁prec 4720
▁rag 5273
▁err 4622
▁surfactant 4621
▁cocktail 4621
linear 4621
▁gatt 5952
▁(' 5180
▁productions 4617
▁bullet 4617
▁demons 4616
▁mobil 15901
▁substitution 4614
▁reside 4614
▁orient 18460
cile 4612
▁amine 4612
▁xii 4626
▁fluorescent 4612
▁mak 4611
aton 4611
▁bot 10086
inos 20335
/25 4610
▁coordin 11679
▁prag 6249
/58/ 4608
-00 4607
▁stain 4606
▁hing 4605
▁ultrasonic 4602
▁bikini 4601
▁fiction 4600
▁eric 4600
▁paradig 4599
▁semin 4599
bad 6953
▁jas 4598
▁porta 42325
▁asean 4598
▁$100 4597
▁(16, 4872
)). 4596
▁builder 4595
19. 4594
endum 4594
▁rider 4593
▁defender 4593
▁idio 4593
▁operable 4592
▁togo 4592
▁handbook 4592
▁ll 6464
▁68. 4591
▁inm 4589
system 26506
clus 4809
▁inspir 6047
▁retard 9257
▁epic 4585
▁continents 4584
▁102 4583
▁durban 4582
▁prototype 4582
1999 19479
▁oper 14082
▁expose 4581
▁fus 8174
▁incon 13314
▁panc 4580
▁tiger 4580
▁intraven 4578
▁influen 4578
▁genu 4578
.; 4578
▁clic 34348
▁pivo 4576
▁philip 4572
▁percep 5890
acher 4569
▁fiji 4566
▁lap 4564
▁frustra 4564
▁nobel 4564
▁disney 4563
liv 4563
▁pilots 4562
▁antar 4562
▁intuitive 4561
▁discontinu 4560
▁hockey 4553
▁epoxy 4553
▁chanc 4552
pard 4551
asta 4634
plate 4551
▁anim 14988
▁ng 4549
▁muti 4549
imer 4548
▁40, 5022
oming 4546
rates 4546
▁burns 4545
propyl 4545
▁succ 8159
industri 4545
▁gaseous 4544
▁ornament 4543
lux 4542
ao 5423
▁polo 5469
▁clinton 4541
democra 4541
!) 4540
▁reci 5640
▁tranquil 4538
▁aer 5226
▁banana 4538
▁fertiliz 4538
hend 7664
▁qui 926120
parti 8134
uan 4537
dan 7912
elect 4535
▁jungle 4535
urban 4534
▁lex 4533
▁tricks 4533
▁fas 10955
boy 4531
inde 10419
▁guang 4529
2.5 4528
bow 4528
hz 4566
excell 4527
▁complexes 5783
▁pneumonia 4526
▁unfort 4525
▁styl 4524
▁walter 4523
▁bachelor 4521
▁dex 4521
▁tet 4519
▁indices 4518
▁ville 46218
fat 4517
▁palma 6192
▁isol 9102
cement 5174
▁rect 4515
▁112 4515
▁aryl 4514
▁1.7 4514
▁kilogra 4513
▁codi 7349
▁provence 4513
▁manag 4512
▁12- 4511
▁xl 4509
arr 6698
▁scp 4539
roma 4665
▁mour 4508
▁behavio 4508
inst 8263
▁indu 14972
▁ron 5137
adow 4505
▁lt 4505
▁71. 4503
▁wastewater 4502
bike 4502
▁1991. 4502
carboxy 4502
▁fel 8721
▁alan 4501
▁til 4501
▁bacter 4500
pool 5286
▁conv 10907
▁trenitalia 4741
▁puri 4495
▁fame 4494
▁ses 171947
▁homosexual 4493
▁duck 4493
▁mounta 4493
pac 4492
rio 9198
▁ratios 4491
ppo 6341
▁bisex 4490
ece 4488
▁multis 4488
▁absur 4487
fib 4487
chloro 4487
▁alicante 4486
/62/ 4486
▁achie 4485
▁twe 4484
▁bron 4983
▁homogene 4481
▁(14). 4480
▁float 4480
▁sb 5386
▁renault 4479
▁benjamin 4479
▁salon 11564
▁2004/ 4476
arse 102987
rable 4475
peace 4474
parable 4474
▁chim 5348
cross 4470
▁vaccin 4467
aments 4466
oty 4466
lah 4465
▁vocation 4465
▁vein 4462
erosis 4461
iden 18282
criptions 4461
▁2-3 4460
pat 7080
▁qr 4456
education 4455
▁cation 4455
lable 4454
▁epc 4453
ritten 4453
sol 4819
▁berg 13589
▁purch 4452
▁stagn 4452
▁concurrent 4451
▁hamas 4450
lements 5283
▁charger 4449
gly 4447
-23 4447
▁wiz 4444
▁crc 4444
▁vista 81132
▁rotatable 4443
▁mole 4675
▁synch 4443
▁suspects 4441
watch 4440
report 4439
▁turkmen 4439
▁(70) 4768
▁tradem 4438
-08 4438
▁patrick 4435
▁negoti 4434
▁helicop 4432
▁vascular 4432
initiative 10673
▁cub 4431
▁andrea 4431
▁aromas 4430
è 80314
atorium 4429
ettes 13612
/26 4428
▁blogs 4428
▁equival 4427
▁wis 4427
▁deposition 4427
▁fauna 4426
▁dip 4763
▁consci 4426
▁4.3 4426
▁canton 4425
▁optic 4425
▁circumferential 4424
▁gd 4423
offici 4421
▁inser 9848
full 4419
▁eden 4415
▁vocal 4415
▁query 4413
file 4413
▁admin 4413
frequ 4412
▁seg 12780
hd 4411
register 4408
▁vul 6918
amid 5068
▁aus 534655
▁rails 4404
▁appropri 4404
▁aerospace 4403
▁appre 6154
-05 4403
▁tier 17611
▁assay 4402
▁impl 4402
▁aut 7791
bile 24504
vil 4400
]: 6180
istance 4396
mol 6818
▁175 4396
▁spider 4396
▁grav 8603
▁portra 4394
-1- 5609
▁avis 40365
▁perfume 4392
lined 4392
▁demon 4391
▁veget 4390
▁symphon 4389
▁(“ 4389
wned 4388
▁hostili 4388
▁≤ 4894
oly 4383
ł 4382
▁icc 4381
iew 4380
▁imparti 4384
▁hypoth 4379
▁ery 4379
▁(29 4379
▁intrins 4377
former 4376
falls 9917
▁bernard 4374
rapp 4372
▁quantum 4371
▁wholes 4371
access 4371
mina 10543
hil 4368
mand 6275
▁3.0 4368
block 6480
▁thorn 4365
▁discip 4364
▁enti 13817
▁revisions 4361
▁gourmet 4360
▁asymmet 4360
▁rocky 4359
▁latch 4359
▁tops 4359
iko 4358
▁sax 4358
▁135 4358
▁3.3 4358
▁inert 4358
acuation 4356
oxide 4355
▁antagon 4355
▁brut 12690
▁rut 4354
▁trinidad 4353
▁$6 4352
▁72. 4352
▁laminate 4352
▁illinois 4352
▁flas 4352
▁bingo 4351
asso 12566
fications 4350
▁castro 4349
▁tale 88354
▁culin 4349
▁divor 5160
▁à 3186834
wever 4348
pto 4799
▁giuseppe 5802
▁herr 42860
▁cham 4347
▁potenti 6876
▁prepar 18370
▁4.4 4344
nr 10575
34) 4344
▁kayak 4343
chin 4342
5.00 4342
▁gaze 4341
▁analogue 4341
▁bavaria 4341
▁pertinent 4340
▁adv 4340
▁1200 4701
▁nag 4339
▁aggrav 4339
osta 9625
▁substanti 4361
lamine 4338
▁hast 8809
▁ela 4337
▁illusion 4337
/61/ 4337
pros 4337
▁36, 4845
▁iu 4334
▁equilibri 4333
▁23: 4333
▁tribal 4332
▁signatures 4331
iten 32766
/2015 4378
▁1974 4802
▁trenbolone 4328
.4/ 4378
arial 4328
▁fiery 4327
tetra 4323
▁andorra 4323
▁johannesburg 4323
▁estimation 4322
▁lind 4321
jus 4321
▁bari 5203
cust 4320
▁anth 4319
vage 4319
▁hut 4318
▁journalis 4317
▁bail 4317
▁cedaw 4316
-07 4314
▁num 7339
'- 4759
▁cler 4312
▁natur 24436
cris 4311
▁importation 4310
▁ammonia 4308
eten 15598
fine 4305
▁ree 4305
▁pressur 4305
▁gibraltar 4304
▁luther 4304
▁dessert 4303
global 4303
▁twist 4303
▁sentiment 4707
▁tram 4301
▁instructor 4301
▁expiration 4301
discrimin 4300
▁sci 24585
▁riches 4300
isola 12115
▁delhi 4298
▁neurolog 4298
▁imagin 4762
▁regener 4296
▁spur 4295
▁ns 4295
ibid 4294
▁cana 4294
acry 4294
tad 9890
.18 4291
ilia 5196
▁manifestation 4290
▁cris 4289
▁sten 4288
▁swinger 4284
▁astra 4282
▁jur 8416
.13 4281
▁mercen 4281
▁wit 4281
▁scann 4281
exp 8491
▁galvan 4280
viol 4279
icide 4279
channel 4278
▁grande 172190
cite 6467
atos 10927
▁nausea 4276
▁(6), 4275
▁litres 4274
▁wan 4272
lift 4272
▁sulfur 4271
▁12) 4670
▁expedition 4270
sty 4269
orium 4268
▁dela 4268
▁01: 4267
▁sni 4266
▁belgrade 4265
▁riviera 4265
▁parcel 4265
arium 4264
▁detec 4263
▁polyamide 4263
rah 4262
tables 7277
)? 4260
▁113 4258
learning 4258
▁definite 4258
▁alice 4257
▁sinter 4257
/63/ 4256
hle 9971
▁commencement 4255
▁wes 5199
▁chin 4252
▁massachusetts 4249
▁oval 4249
minent 4248
▁abo 4246
player 4246
▁emitting 4246
▁rin 14889
lash 4244
bour 4244
uster 4244
▁volatil 4243
▁(7, 4897
▁1988, 4242
▁+39 4241
osph 4240
α 4906
▁sas 4240
▁couch 4240
urance 4239
▁73. 4239
2; 4238
▁transm 4689
ilar 5206
▁workpiece 4235
▁trainer 4235
▁oxford 4235
vement 4235
-22 4235
▁youtube 4233
amous 4233
▁iber 4229
▁desp 7723
▁sbi 4228
▁jane 4228
▁fermentation 4227
▁mutation 4227
▁emin 4226
▁synony 4226
▁explor 6151
▁skate 4225
▁jurisprudence 4225
▁samp 4225
viation 4222
ā 4222
alla 14794
▁reimburs 4221
tm 4221
▁184 4220
▁centro 130841
/23 4219
holders 4218
▁satin 4218
help 4217
fal 5878
yon 4214
wat 4214
competi 4213
▁reven 4212
phant 4212
tels 5885
▁desc 6799
▁wid 4678
▁8) 4485
▁bau 33888
▁salzburg 4203
onium 4202
standard 4202
▁peculiar 4201
ott 6175
▁ima 4198
tele 6060
▁fracture 4194
▁fau 4194
▁fiss 4556
▁moto 14436
▁susceptible 5481
▁protector 4192
▁lucia 4192
alli 8068
▁algorith 4192
eries 4192
butyl 4188
▁1972 4473
dess 4183
▁ibiza 4181
▁10) 4434
▁embodiment 4181
▁tc 4179
▁spons 4179
▁(62) 4358
▁(20). 4179
▁orb 4178
▁astron 4178
▁vibrations 4177
▁2020. 4176
unch 4175
abo 4174
ignant 4173
ucher 7770
march 4170
pn 6233
aid 4168
(8 4789
▁diode 4167
vac 5062
vc 4167
▁dl 4510
crp 4165
▁aquarium 4165
▁karaoke 4165
services 4163
.( 4174
gm 4162
▁1967 4162
antic 4161
▁taylor 4161
▁jacuzzi 4159
▁ferro 11944
olf 4687
cale 4157
gon 7680
ć 4155
▁handy 4155
▁fluctu 4155
▁lamin 11663
qual 4153
▁barre 10375
▁couns 4150
▁rc 4148
hydrate 4147
rat 18954
▁xia 4146
gio 16026
rey 4146
▁capac 4881
ident 4144
▁inferior 11235
▁1.4. 4723
▁ventures 4140
mals 4140
▁nin 4139
gestion 4139
▁botswana 4139
usti 6881
-3- 4719
rank 4137
▁promoter 4137
▁pedal 4136
leste 4136
▁stan 4136
valent 4134
▁(56) 4436
▁andre 5421
▁colonel 4130
▁cathode 4129
▁eagle 4128
▁autom 7802
▁vill 4592
▁dil 4125
▁tir 8471
zep 4124
▁putin 4124
▁saf 4123
▁cyto 4123
▁fifa 4123
-29 4123
moles 4122
▁shampoo 4121
olla 4121
april 4121
▁yi 4120
▁capri 4119
▁touches 4118
tunes 4117
▁vet 6730
:54 4117
▁contradiction 4117
thia 4117
▁irrevers 4116
▁74. 4116
▁curr 4116
▁ui 4115
ticals 4114
▁coli 4113
lices 4111
▁filtration 4111
▁isola 9225
▁bios 4115
▁collision 4110
oi 7477
▁cache 4109
▁multiplex 4109
stream 4109
project 4108
▁dispenser 4108
edic 4107
▁monarch 4107
▁neon 4868
▁xp 4105
▁doctr 4105
▁mauritania 4105
▁persi 4104
▁competitor 4104
pub 4104
connect 4104
▁spro 4104
▁1930 4104
▁100. 4103
tops 4101
▁jak 4099
hit 4098
icos 28768
document 4094
gp 4301
▁forti 6268
september 4092
▁lique 4092
operative 4091
cussions 4091
oria 8629
▁normative 4090
fru 4089
allo 6544
isations 7693
▁5000 5966
▁eventual 4085
▁vr 4552
rang 4082
erved 4082
ername 4081
viral 4081
illon 9324
▁barn 4080
geted 4080
▁modelling 4079
emer 4079
matt 4079
▁ø 4147
▁journ 4078
▁ohio 4077
▁galileo 4075
▁dean 4073
usted 4073
▁wanderio 4083
▁30- 4072
▁rna 4072
▁admiss 4071
▁ply 4071
conduct 4071
engine 4068
▁5.0 4068
». 51834
▁polymerization 4067
▁stakeholder 4067
:53 4066
▁contour 4066
▁repu 4416
▁deg 4139
▁repro 4065
mik 4064
▁sbsta 4064
.1). 4063
▁congestion 4062
▁accidental 4062
nik 4060
▁cia 5490
ork 4059
▁cereal 4058
▁compil 4815
multi 4058
words 4055
cken 19778
▁malaga 4055
▁inspec 4053
did 4053
▁seniors 4052
nage 6896
▁stickers 4051
"; 4049
▁informations 83887
▁sno 4049
alone 4049
asion 4048
▁separator 4048
▁aliphatic 4048
▁condom 4047
▁recombinant 4046
▁inci 4045
anno 74269
▁são 4043
▁convictions 4043
▁distur 4041
:^ 7225
▁collo 10371
▁carro 5554
▁depri 4039
fici 12833
station 8432
▁alkoxy 4036
▁somali 4036
▁vil 4035
chant 5991
▁yar 4032
pir 7428
ä 53904
▁08: 4029
soluble 4027
▁myco 4025
vail 4025
▁0.0 4025
▁hunter 4023
christ 4023
phosph 4022
lem 5350
▁disappe 4021
▁ally 4020
▁manifes 4020
▁37, 4912
!!! 4019
▁sched 4018
▁eze 4016
agog 4016
▁lieutenant 4015
ution 4015
▁118 4015
/17 4014
▁rainbow 4013
paragraph 4013
-2, 4012
▁workflow 4010
▁pau 4920
ummer 4009
▁repository 4008
▁diligence 4008
▁esa 51942
▁fibro 4005
/53/ 4005
▁cassette 4005
▁propyl 4004
▁76. 4004
-27 4003
▁stigma 4002
▁franchise 4002
▁substitu 10353
▁depu 3998
▁ridge 3997
stro 3997
▁hobby 3996
▁lem 3995
▁admir 3995
4,000 3995
unter 24218
quis 5067
confer 3992
aus 40397
▁syl 3990
zzles 3989
▁fidel 3988
tan 6967
7- 4144
inge 12354
olds 3986
▁lao 3986
itzerland 3985
/09 3985
este 15747
▁mec 7847
▁induce 3983
▁empi 3982
▁arrang 3982
arta 3980
▁grief 3980
▁div 9381
ucc 3979
phil 3979
▁reagent 3979
▁wilson 3978
▁tion 3978
tare 34428
wick 7332
ë 7606
▁fond 32149
▁qua 3976
▁copi 3976
▁prim 10078
tronic 3975
idine 3973
▁halide 3972
▁(11). 3970
▁licensee 3970
▁spine 3969
commer 3969
/52/ 3968
▁ecclesias 3968
omers 3965
▁mitig 3964
▁nud 4085
▁interruption 3963
æ 3962
▁duplex 3961
pv 3961
▁scl 3960
▁proxy 3960
utin 3959
▁dispens 6905
▁griev 3959
tti 14609
sci 3958
▁38, 4414
▁token 3958
▁abd 5714
▁marshall 3957
▁firefox 3957
lyte 3956
▁plugin 3955
▁volunte 3955
▁publi 7541
▁(32 5797
▁ech 6493
▁assemb 6076
▁trieste 3947
▁alta 72885
▁fides 4101
▁hist 3945
▁sensible 7825
▁lob 3944
▁francesco 7845
/2017 4131
▁emplo 3943
process 3941
aught 3940
quar 3939
:" 3939
▁vibr 3939
▁mann 17443
▁testimoni 4241
▁venezia 17327
− 4091
bei 11508
▁dakar 3936
▁filament 3935
▁sunrise 3935
▁stabil 14888
sb 4105
▁ascend 6555
▁109 3934
yster 3933
▁chen 3930
andra 3930
▁volkswagen 3930
▁shim 3930
erk 3979
▁parc 13964
▁1985, 3929
extra 5933
lob 5826
и 7759
hens 6590
/66/ 3927
▁2000-200 3927
▁db 3926
▁playa 16585
▁jel 3924
▁sculpt 3924
▁profil 27599
▁aven 3923
▁controll 3922
▁bosch 4378
▁iod 3920
▁essay 3919
▁dias 3919
ardi 6290
▁angu 3918
arin 3918
▁salerno 3917
lc 5288
▁magne 9767
polymer 6641
▁phoenix 3915
▁14) 4405
▁photovolta 3914
▁conserv 21045
▁mw 8313
/68/ 3913
▁incur 3913
esto 9915
▁disclos 3912
▁sofia 3910
.14 3910
ignon 6515
online 3909
jer 6373
▁50, 4719
▁perim 3908
▁guer 4061
eses 3905
▁hir 5103
alco 3904
enders 3904
▁primi 18966
▁bilingual 3902
▁hb 3902
chap 3901
imi 8923
▁bali 3901
▁rav 4827
▁(22, 4045
▁1971 4232
▁ost 8843
umen 10649
▁jonathan 3893
▁laur 3893
▁(8, 4369
▁infor 5234
▁charlie 3890
▁genti 5884
▁acry 3890
2); 3890
▁tobago 3889
/2016 3935
▁fes 10290
ght 3889
tober 3889
enda 17570
▁arbitral 3888
.00 3888
nant 8120
▁perpetu 3887
▁ole 4260
▁williams 3886
▁rip 3886
ü 40941
▁scandina 3885
▁gir 8938
tros 11007
▁greens 3883
▁pia 12068
▁michigan 3882
ör 11106
▁pd 3882
brand 3880
lys 3879
▁0.7 3879
▁79. 3879
▁kir 7580
▁alzheimer 3878
bral 3878
▁3). 3877
mentation 3875
cier 9859
rep 3875
▁kap 10840
personal 4006
▁peg 4344
▁kt 3873
▁chol 3871
▁anom 3871
▁desta 3871
▁erasmus 3871
▁insul 3869
▁182 3867
▁esf 3867
▁[3] 3866
essa 16845
▁1010 3865
hou 3864
▁mentions 3864
▁freed 3864
integra 3862
shi 3861
▁gluten 3861
▁popul 4071
▁discla 3861
▁withdra 3860
ilic 3860
▁pest 3860
▁6.2 3859
▁(11), 3858
▁santo 23678
tow 3857
▁celebri 3856
▁converti 9089
-50 3855
forts 3853
▁asp 3852
▁riders 3851
▁conta 14720
▁imperi 5753
▁practition 3849
fact 3849
▁corp 3849
▁mailing 3849
upon 3848
▁adi 10419
▁adaptive 3844
▁unanimous 3844
▁barbara 3843
▁111 3841
▁sync 3840
hey 3839
idents 3839
feu 3838
▁societ 3838
▁irradi 3837
-26 3836
▁liquidation 3836
▁jay 3832
▁deli 8415
▁eff 7849
▁compass 3831
▁herpes 3830
chat 4896
▁alfa 5369
▁fli 3828
aire 28276
associ 3827
▁dy 3827
▁77. 3826
uz 4200
▁neighbour 3826
▁attenu 3823
▁versa 3821
-4- 4119
▁adri 4278
▁britt 3819
alty 3818
▁intima 3818
vr 5270
▁(14), 3816
▁brig 3816
▁humor 3816
▁sym 3816
▁116 3816
aler 10347
▁guyana 3815
▁lomé 3815
cible 3815
▁logos 3814
▁hec 3814
▁catech 3812
urrence 3810
▁arsen 3810
▁oslo 3810
million 3809
▁modernisation 3808
▁intest 5003
polic 3807
▁eurozone 3807
unep 3806
▁distillation 3806
▁80. 3805
▁knight 3804
▁yog 3804
▁1987, 3803
▁barbados 3803
▁kernel 3801
▁rwand 3801
cision 3800
▁gradient 3799
** 3799
▁carcin 3798
▁1,500 3798
▁napole 3798
▁interc 4315
itals 3797
”) 3796
▁1920 3796
ffee 3795
▁munitions 3795
▁damas 3795
▁tec 6833
▁pompe 11400
▁hôtel 17531
tista 10603
▁320 3969
▁roger 3790
▁114 3790
titudes 3789
:51 3789
itus 3789
cht 27616
▁ppm 3787
ă 5221
▁05:00 3783
▁acquisitions 3783
▁oasis 3783
▁dispos 6613
▁aud 4717
▁dispar 9849
▁cagliari 3780
▁indeb 3778
-40 3777
▁conflic 3777
▁commence 7796
▁montréal 11687
uds 3774
▁inventive 3774
▁mig 5584
▁archi 3771
▁brian 3771
onge 3770
▁enfor 3770
had 3770
▁2002/ 3769
▁als 401421
▁jewel 3769
▁aa 3769
▁[1 3768
esc 5896
▁marathon 3767
▁reflector 3767
▁lus 4301
▁freder 3766
▁mh 3765
▁meg 3765
edia 4822
ppi 7455
▁recom 7351
▁90. 3782
zza 35091
provid 3761
ior 4194
▁(13, 4061
▁sixt 3759
:52 3757
▁tenerife 3757
▁impulse 3757
▁archiv 9844
inner 3756
[...]
